#include "magic_wand_model_data.h"

// We need to keep the data array aligned on some architectures.
#ifdef __has_attribute
#define HAVE_ATTRIBUTE(x) __has_attribute(x)
#else
#define HAVE_ATTRIBUTE(x) 0
#endif
#if HAVE_ATTRIBUTE(aligned) || (defined(__GNUC__) && !defined(__clang__))
#define DATA_ALIGN_ATTRIBUTE __attribute__((aligned(4)))
#else
#define DATA_ALIGN_ATTRIBUTE
#endif

const unsigned char g_magic_wand_model_data[] DATA_ALIGN_ATTRIBUTE = {
  0x1c, 0x00, 0x00, 0x00, 0x54, 0x46, 0x4c, 0x33, 0x14, 0x00, 0x20, 0x00,
  0x04, 0x00, 0x08, 0x00, 0x0c, 0x00, 0x10, 0x00, 0x14, 0x00, 0x00, 0x00,
  0x18, 0x00, 0x1c, 0x00, 0x14, 0x00, 0x00, 0x00, 0x03, 0x00, 0x00, 0x00,
  0x18, 0x00, 0x00, 0x00, 0x2c, 0x00, 0x00, 0x00, 0xd8, 0x00, 0x00, 0x00,
  0x2c, 0x00, 0x00, 0x00, 0x80, 0x00, 0x00, 0x00, 0x78, 0x00, 0x00, 0x00,
  0x05, 0x00, 0x00, 0x00, 0x28, 0x07, 0x00, 0x00, 0x44, 0x06, 0x00, 0x00,
  0xbc, 0x03, 0x00, 0x00, 0xf8, 0x02, 0x00, 0x00, 0xac, 0x01, 0x00, 0x00,
  0x01, 0x00, 0x00, 0x00, 0xd0, 0x00, 0x00, 0x00, 0x14, 0x00, 0x00, 0x00,
  0x98, 0x32, 0x00, 0x00, 0x94, 0x32, 0x00, 0x00, 0x8c, 0x31, 0x00, 0x00,
  0xd8, 0x30, 0x00, 0x00, 0x30, 0x30, 0x00, 0x00, 0xbc, 0x2f, 0x00, 0x00,
  0x50, 0x2f, 0x00, 0x00, 0x00, 0x13, 0x00, 0x00, 0xec, 0x11, 0x00, 0x00,
  0x10, 0x10, 0x00, 0x00, 0xb4, 0x07, 0x00, 0x00, 0x6c, 0x32, 0x00, 0x00,
  0x68, 0x32, 0x00, 0x00, 0x64, 0x32, 0x00, 0x00, 0x60, 0x32, 0x00, 0x00,
  0x5c, 0x32, 0x00, 0x00, 0x58, 0x32, 0x00, 0x00, 0x54, 0x32, 0x00, 0x00,
  0x50, 0x32, 0x00, 0x00, 0x3c, 0x00, 0x00, 0x00, 0x00, 0x00, 0x00, 0x00,
  0x01, 0x00, 0x00, 0x00, 0x0c, 0x00, 0x00, 0x00, 0x08, 0x00, 0x0c, 0x00,
  0x04, 0x00, 0x08, 0x00, 0x08, 0x00, 0x00, 0x00, 0x08, 0x00, 0x00, 0x00,
  0x13, 0x00, 0x00, 0x00, 0x13, 0x00, 0x00, 0x00, 0x6d, 0x69, 0x6e, 0x5f,
  0x72, 0x75, 0x6e, 0x74, 0x69, 0x6d, 0x65, 0x5f, 0x76, 0x65, 0x72, 0x73,
  0x69, 0x6f, 0x6e, 0x00, 0xfa, 0xce, 0xff, 0xff, 0x04, 0x00, 0x00, 0x00,
  0x10, 0x00, 0x00, 0x00, 0x31, 0x2e, 0x35, 0x2e, 0x30, 0x00, 0x00, 0x00,
  0x00, 0x00, 0x00, 0x00, 0x00, 0x00, 0x00, 0x00, 0x0f, 0x00, 0x00, 0x00,
  0x4d, 0x4c, 0x49, 0x52, 0x20, 0x43, 0x6f, 0x6e, 0x76, 0x65, 0x72, 0x74,
  0x65, 0x64, 0x2e, 0x00, 0x00, 0x00, 0x0e, 0x00, 0x18, 0x00, 0x04, 0x00,
  0x08, 0x00, 0x0c, 0x00, 0x10, 0x00, 0x14, 0x00, 0x0e, 0x00, 0x00, 0x00,
  0x14, 0x00, 0x00, 0x00, 0x5c, 0x00, 0x00, 0x00, 0x60, 0x00, 0x00, 0x00,
  0x64, 0x00, 0x00, 0x00, 0x84, 0x00, 0x00, 0x00, 0x12, 0x00, 0x00, 0x00,
  0x58, 0x31, 0x00, 0x00, 0xe8, 0x30, 0x00, 0x00, 0x44, 0x30, 0x00, 0x00,
  0x9c, 0x2f, 0x00, 0x00, 0xf4, 0x2e, 0x00, 0x00, 0x94, 0x2e, 0x00, 0x00,
  0x2c, 0x2e, 0x00, 0x00, 0xd8, 0x11, 0x00, 0x00, 0xbc, 0x10, 0x00, 0x00,
  0xe0, 0x0e, 0x00, 0x00, 0x0c, 0x06, 0x00, 0x00, 0x28, 0x05, 0x00, 0x00,
  0xe8, 0x03, 0x00, 0x00, 0x3c, 0x03, 0x00, 0x00, 0x98, 0x02, 0x00, 0x00,
  0xd4, 0x01, 0x00, 0x00, 0x10, 0x01, 0x00, 0x00, 0x84, 0x00, 0x00, 0x00,
  0x01, 0x00, 0x00, 0x00, 0x00, 0x00, 0x00, 0x00, 0x01, 0x00, 0x00, 0x00,
  0x11, 0x00, 0x00, 0x00, 0x08, 0x00, 0x00, 0x00, 0x74, 0x05, 0x00, 0x00,
  0x94, 0x04, 0x00, 0x00, 0x78, 0x03, 0x00, 0x00, 0xbc, 0x02, 0x00, 0x00,
  0x30, 0x02, 0x00, 0x00, 0x50, 0x01, 0x00, 0x00, 0xa8, 0x00, 0x00, 0x00,
  0x10, 0x00, 0x00, 0x00, 0x04, 0x00, 0x00, 0x00, 0x6d, 0x61, 0x69, 0x6e,
  0x00, 0x00, 0x00, 0x00, 0x7a, 0xff, 0xff, 0xff, 0x00, 0x00, 0x00, 0x09,
  0x04, 0x00, 0x00, 0x00, 0x1c, 0x00, 0x00, 0x00, 0x10, 0x00, 0x00, 0x00,
  0x04, 0x00, 0x00, 0x00, 0xf6, 0xcf, 0xff, 0xff, 0x00, 0x00, 0x80, 0x3f,
  0x01, 0x00, 0x00, 0x00, 0x11, 0x00, 0x00, 0x00, 0x01, 0x00, 0x00, 0x00,
  0x10, 0x00, 0x00, 0x00, 0xa0, 0xfa, 0xff, 0xff, 0x19, 0x00, 0x00, 0x00,
  0x00, 0x00, 0x00, 0x19, 0x01, 0x00, 0x00, 0x00, 0x84, 0xcf, 0xff, 0xff,
  0x14, 0x00, 0x00, 0x00, 0x12, 0x00, 0x00, 0x00, 0x18, 0x00, 0x00, 0x00,
  0x30, 0x00, 0x00, 0x00, 0x20, 0x00, 0x00, 0x00, 0x02, 0x00, 0x00, 0x00,
  0x01, 0x00, 0x00, 0x00, 0x03, 0x00, 0x00, 0x00, 0x08, 0x00, 0x00, 0x00,
  0x49, 0x64, 0x65, 0x6e, 0x74, 0x69, 0x74, 0x79, 0x00, 0x00, 0x00, 0x00,
  0x02, 0x00, 0x00, 0x00, 0xff, 0xff, 0xff, 0xff, 0x03, 0x00, 0x00, 0x00,
  0x68, 0xd0, 0xff, 0xff, 0x00, 0x00, 0x0e, 0x00, 0x18, 0x00, 0x08, 0x00,
  0x0c, 0x00, 0x10, 0x00, 0x07, 0x00, 0x14, 0x00, 0x0e, 0x00, 0x00, 0x00,
  0x00, 0x00, 0x00, 0x08, 0x03, 0x00, 0x00, 0x00, 0x18, 0x00, 0x00, 0x00,
  0x0c, 0x00, 0x00, 0x00, 0x04, 0x00, 0x00, 0x00, 0x84, 0xcf, 0xff, 0xff,
  0x01, 0x00, 0x00, 0x00, 0x10, 0x00, 0x00, 0x00, 0x03, 0x00, 0x00, 0x00,
  0x0f, 0x00, 0x00, 0x00, 0x07, 0x00, 0x00, 0x00, 0x04, 0x00, 0x00, 0x00,
  0x0c, 0xd0, 0xff, 0xff, 0x14, 0x00, 0x00, 0x00, 0x11, 0x00, 0x00, 0x00,
  0x18, 0x00, 0x00, 0x00, 0x5c, 0x00, 0x00, 0x00, 0x4c, 0x00, 0x00, 0x00,
  0x02, 0x00, 0x00, 0x00, 0x01, 0x00, 0x00, 0x00, 0x03, 0x00, 0x00, 0x00,
  0x34, 0x00, 0x00, 0x00, 0x73, 0x65, 0x71, 0x75, 0x65, 0x6e, 0x74, 0x69,
  0x61, 0x6c, 0x2f, 0x64, 0x65, 0x6e, 0x73, 0x65, 0x5f, 0x31, 0x2f, 0x4d,
  0x61, 0x74, 0x4d, 0x75, 0x6c, 0x3b, 0x73, 0x65, 0x71, 0x75, 0x65, 0x6e,
  0x74, 0x69, 0x61, 0x6c, 0x2f, 0x64, 0x65, 0x6e, 0x73, 0x65, 0x5f, 0x31,
  0x2f, 0x42, 0x69, 0x61, 0x73, 0x41, 0x64, 0x64, 0x00, 0x00, 0x00, 0x00,
  0x02, 0x00, 0x00, 0x00, 0xff, 0xff, 0xff, 0xff, 0x03, 0x00, 0x00, 0x00,
  0x0c, 0xd0, 0xff, 0xff, 0xda, 0xfc, 0xff, 0xff, 0x00, 0x00, 0x00, 0x08,
  0x03, 0x00, 0x00, 0x00, 0x24, 0x00, 0x00, 0x00, 0x18, 0x00, 0x00, 0x00,
  0x0c, 0x00, 0x00, 0x00, 0x00, 0x00, 0x06, 0x00, 0x08, 0x00, 0x07, 0x00,
  0x06, 0x00, 0x00, 0x00, 0x00, 0x00, 0x00, 0x01, 0x01, 0x00, 0x00, 0x00,
  0x0f, 0x00, 0x00, 0x00, 0x03, 0x00, 0x00, 0x00, 0x0e, 0x00, 0x00, 0x00,
  0x06, 0x00, 0x00, 0x00, 0x03, 0x00, 0x00, 0x00, 0xe8, 0xfb, 0xff, 0xff,
  0x09, 0x00, 0x00, 0x00, 0x00, 0x00, 0x00, 0x09, 0x01, 0x00, 0x00, 0x00,
  0xcc, 0xd0, 0xff, 0xff, 0x14, 0x00, 0x00, 0x00, 0x10, 0x00, 0x00, 0x00,
  0x18, 0x00, 0x00, 0x00, 0x6c, 0x00, 0x00, 0x00, 0x5c, 0x00, 0x00, 0x00,
  0x02, 0x00, 0x00, 0x00, 0x01, 0x00, 0x00, 0x00, 0x10, 0x00, 0x00, 0x00,
  0x46, 0x00, 0x00, 0x00, 0x73, 0x65, 0x71, 0x75, 0x65, 0x6e, 0x74, 0x69,
  0x61, 0x6c, 0x2f, 0x64, 0x65, 0x6e, 0x73, 0x65, 0x2f, 0x4d, 0x61, 0x74,
  0x4d, 0x75, 0x6c, 0x3b, 0x73, 0x65, 0x71, 0x75, 0x65, 0x6e, 0x74, 0x69,
  0x61, 0x6c, 0x2f, 0x64, 0x65, 0x6e, 0x73, 0x65, 0x2f, 0x52, 0x65, 0x6c,
  0x75, 0x3b, 0x73, 0x65, 0x71, 0x75, 0x65, 0x6e, 0x74, 0x69, 0x61, 0x6c,
  0x2f, 0x64, 0x65, 0x6e, 0x73, 0x65, 0x2f, 0x42, 0x69, 0x61, 0x73, 0x41,
  0x64, 0x64, 0x00, 0x00, 0x02, 0x00, 0x00, 0x00, 0xff, 0xff, 0xff, 0xff,
  0x10, 0x00, 0x00, 0x00, 0xec, 0xd1, 0xff, 0xff, 0x00, 0x00, 0x0a, 0x00,
  0x10, 0x00, 0x04, 0x00, 0x08, 0x00, 0x0c, 0x00, 0x0a, 0x00, 0x00, 0x00,
  0x02, 0x00, 0x00, 0x00, 0x10, 0x00, 0x00, 0x00, 0x04, 0x00, 0x00, 0x00,
  0x01, 0x00, 0x00, 0x00, 0x0e, 0x00, 0x00, 0x00, 0x02, 0x00, 0x00, 0x00,
  0x0d, 0x00, 0x00, 0x00, 0x05, 0x00, 0x00, 0x00, 0xa8, 0xfc, 0xff, 0xff,
  0x16, 0x00, 0x00, 0x00, 0x00, 0x00, 0x00, 0x16, 0x01, 0x00, 0x00, 0x00,
  0x8c, 0xd1, 0xff, 0xff, 0x14, 0x00, 0x00, 0x00, 0x0f, 0x00, 0x00, 0x00,
  0x18, 0x00, 0x00, 0x00, 0x40, 0x00, 0x00, 0x00, 0x30, 0x00, 0x00, 0x00,
  0x02, 0x00, 0x00, 0x00, 0x01, 0x00, 0x00, 0x00, 0x70, 0x00, 0x00, 0x00,
  0x1a, 0x00, 0x00, 0x00, 0x73, 0x65, 0x71, 0x75, 0x65, 0x6e, 0x74, 0x69,
  0x61, 0x6c, 0x2f, 0x66, 0x6c, 0x61, 0x74, 0x74, 0x65, 0x6e, 0x2f, 0x52,
  0x65, 0x73, 0x68, 0x61, 0x70, 0x65, 0x00, 0x00, 0x02, 0x00, 0x00, 0x00,
  0xff, 0xff, 0xff, 0xff, 0x70, 0x00, 0x00, 0x00, 0x70, 0xd1, 0xff, 0xff,
  0x3e, 0xfe, 0xff, 0xff, 0x00, 0x00, 0x00, 0x05, 0x01, 0x00, 0x00, 0x00,
  0x38, 0x00, 0x00, 0x00, 0x2c, 0x00, 0x00, 0x00, 0x14, 0x00, 0x00, 0x00,
  0x00, 0x00, 0x0e, 0x00, 0x14, 0x00, 0x00, 0x00, 0x10, 0x00, 0x0c, 0x00,
  0x08, 0x00, 0x04, 0x00, 0x0e, 0x00, 0x00, 0x00, 0x03, 0x00, 0x00, 0x00,
  0x01, 0x00, 0x00, 0x00, 0x03, 0x00, 0x00, 0x00, 0x01, 0x00, 0x00, 0x00,
  0x01, 0x00, 0x00, 0x00, 0x0d, 0x00, 0x00, 0x00, 0x01, 0x00, 0x00, 0x00,
  0x0c, 0x00, 0x00, 0x00, 0x2c, 0xd2, 0xff, 0xff, 0x14, 0x00, 0x00, 0x00,
  0x0e, 0x00, 0x00, 0x00, 0x20, 0x00, 0x00, 0x00, 0x58, 0x00, 0x00, 0x00,
  0x40, 0x00, 0x00, 0x00, 0x04, 0x00, 0x00, 0x00, 0x01, 0x00, 0x00, 0x00,
  0x07, 0x00, 0x00, 0x00, 0x01, 0x00, 0x00, 0x00, 0x10, 0x00, 0x00, 0x00,
  0x22, 0x00, 0x00, 0x00, 0x73, 0x65, 0x71, 0x75, 0x65, 0x6e, 0x74, 0x69,
  0x61, 0x6c, 0x2f, 0x6d, 0x61, 0x78, 0x5f, 0x70, 0x6f, 0x6f, 0x6c, 0x69,
  0x6e, 0x67, 0x32, 0x64, 0x5f, 0x31, 0x2f, 0x4d, 0x61, 0x78, 0x50, 0x6f,
  0x6f, 0x6c, 0x00, 0x00, 0x04, 0x00, 0x00, 0x00, 0xff, 0xff, 0xff, 0xff,
  0x07, 0x00, 0x00, 0x00, 0x01, 0x00, 0x00, 0x00, 0x10, 0x00, 0x00, 0x00,
  0x28, 0xd2, 0xff, 0xff, 0x1a, 0xfe, 0xff, 0xff, 0x00, 0x00, 0x00, 0x01,
  0x24, 0x00, 0x00, 0x00, 0x18, 0x00, 0x00, 0x00, 0x04, 0x00, 0x00, 0x00,
  0x0c, 0xfe, 0xff, 0xff, 0x01, 0x00, 0x00, 0x00, 0x01, 0x00, 0x00, 0x00,
  0x00, 0x00, 0x00, 0x01, 0x01, 0x00, 0x00, 0x00, 0x0c, 0x00, 0x00, 0x00,
  0x03, 0x00, 0x00, 0x00, 0x0b, 0x00, 0x00, 0x00, 0x09, 0x00, 0x00, 0x00,
  0x02, 0x00, 0x00, 0x00, 0xd4, 0xd2, 0xff, 0xff, 0x14, 0x00, 0x00, 0x00,
  0x0d, 0x00, 0x00, 0x00, 0x20, 0x00, 0x00, 0x00, 0xb8, 0x00, 0x00, 0x00,
  0xa0, 0x00, 0x00, 0x00, 0x04, 0x00, 0x00, 0x00, 0x01, 0x00, 0x00, 0x00,
  0x15, 0x00, 0x00, 0x00, 0x01, 0x00, 0x00, 0x00, 0x10, 0x00, 0x00, 0x00,
  0x83, 0x00, 0x00, 0x00, 0x73, 0x65, 0x71, 0x75, 0x65, 0x6e, 0x74, 0x69,
  0x61, 0x6c, 0x2f, 0x63, 0x6f, 0x6e, 0x76, 0x32, 0x64, 0x5f, 0x31, 0x2f,
  0x52, 0x65, 0x6c, 0x75, 0x3b, 0x73, 0x65, 0x71, 0x75, 0x65, 0x6e, 0x74,
  0x69, 0x61, 0x6c, 0x2f, 0x63, 0x6f, 0x6e, 0x76, 0x32, 0x64, 0x5f, 0x31,
  0x2f, 0x42, 0x69, 0x61, 0x73, 0x41, 0x64, 0x64, 0x3b, 0x73, 0x65, 0x71,
  0x75, 0x65, 0x6e, 0x74, 0x69, 0x61, 0x6c, 0x2f, 0x63, 0x6f, 0x6e, 0x76,
  0x32, 0x64, 0x5f, 0x31, 0x2f, 0x43, 0x6f, 0x6e, 0x76, 0x32, 0x44, 0x3b,
  0x73, 0x65, 0x71, 0x75, 0x65, 0x6e, 0x74, 0x69, 0x61, 0x6c, 0x2f, 0x63,
  0x6f, 0x6e, 0x76, 0x32, 0x64, 0x5f, 0x31, 0x2f, 0x42, 0x69, 0x61, 0x73,
  0x41, 0x64, 0x64, 0x2f, 0x52, 0x65, 0x61, 0x64, 0x56, 0x61, 0x72, 0x69,
  0x61, 0x62, 0x6c, 0x65, 0x4f, 0x70, 0x2f, 0x72, 0x65, 0x73, 0x6f, 0x75,
  0x72, 0x63, 0x65, 0x00, 0x04, 0x00, 0x00, 0x00, 0xff, 0xff, 0xff, 0xff,
  0x15, 0x00, 0x00, 0x00, 0x01, 0x00, 0x00, 0x00, 0x10, 0x00, 0x00, 0x00,
  0x40, 0xd4, 0xff, 0xff, 0x00, 0x00, 0x0e, 0x00, 0x1a, 0x00, 0x08, 0x00,
  0x0c, 0x00, 0x10, 0x00, 0x07, 0x00, 0x14, 0x00, 0x0e, 0x00, 0x00, 0x00,
  0x00, 0x00, 0x00, 0x05, 0x01, 0x00, 0x00, 0x00, 0x3c, 0x00, 0x00, 0x00,
  0x30, 0x00, 0x00, 0x00, 0x14, 0x00, 0x00, 0x00, 0x00, 0x00, 0x0e, 0x00,
  0x18, 0x00, 0x17, 0x00, 0x10, 0x00, 0x0c, 0x00, 0x08, 0x00, 0x04, 0x00,
  0x0e, 0x00, 0x00, 0x00, 0x03, 0x00, 0x00, 0x00, 0x03, 0x00, 0x00, 0x00,
  0x03, 0x00, 0x00, 0x00, 0x03, 0x00, 0x00, 0x00, 0x00, 0x00, 0x00, 0x01,
  0x01, 0x00, 0x00, 0x00, 0x0b, 0x00, 0x00, 0x00, 0x01, 0x00, 0x00, 0x00,
  0x0a, 0x00, 0x00, 0x00, 0x2c, 0xff, 0xff, 0xff, 0x11, 0x00, 0x00, 0x00,
  0x00, 0x00, 0x00, 0x11, 0x01, 0x00, 0x00, 0x00, 0x10, 0xd4, 0xff, 0xff,
  0x14, 0x00, 0x00, 0x00, 0x0c, 0x00, 0x00, 0x00, 0x20, 0x00, 0x00, 0x00,
  0x58, 0x00, 0x00, 0x00, 0x40, 0x00, 0x00, 0x00, 0x04, 0x00, 0x00, 0x00,
  0x01, 0x00, 0x00, 0x00, 0x15, 0x00, 0x00, 0x00, 0x01, 0x00, 0x00, 0x00,
  0x08, 0x00, 0x00, 0x00, 0x20, 0x00, 0x00, 0x00, 0x73, 0x65, 0x71, 0x75,
  0x65, 0x6e, 0x74, 0x69, 0x61, 0x6c, 0x2f, 0x6d, 0x61, 0x78, 0x5f, 0x70,
  0x6f, 0x6f, 0x6c, 0x69, 0x6e, 0x67, 0x32, 0x64, 0x2f, 0x4d, 0x61, 0x78,
  0x50, 0x6f, 0x6f, 0x6c, 0x00, 0x00, 0x00, 0x00, 0x04, 0x00, 0x00, 0x00,
  0xff, 0xff, 0xff, 0xff, 0x15, 0x00, 0x00, 0x00, 0x01, 0x00, 0x00, 0x00,
  0x08, 0x00, 0x00, 0x00, 0x1c, 0xd5, 0xff, 0xff, 0x00, 0x00, 0x0e, 0x00,
  0x14, 0x00, 0x00, 0x00, 0x08, 0x00, 0x0c, 0x00, 0x07, 0x00, 0x10, 0x00,
  0x0e, 0x00, 0x00, 0x00, 0x00, 0x00, 0x00, 0x01, 0x30, 0x00, 0x00, 0x00,
  0x24, 0x00, 0x00, 0x00, 0x10, 0x00, 0x00, 0x00, 0x0c, 0x00, 0x10, 0x00,
  0x00, 0x00, 0x04, 0x00, 0x08, 0x00, 0x0f, 0x00, 0x0c, 0x00, 0x00, 0x00,
  0x01, 0x00, 0x00, 0x00, 0x01, 0x00, 0x00, 0x00, 0x00, 0x00, 0x00, 0x01,
  0x01, 0x00, 0x00, 0x00, 0x0a, 0x00, 0x00, 0x00, 0x03, 0x00, 0x00, 0x00,
  0x00, 0x00, 0x00, 0x00, 0x08, 0x00, 0x00, 0x00, 0x01, 0x00, 0x00, 0x00,
  0x0c, 0x00, 0x10, 0x00, 0x0b, 0x00, 0x00, 0x00, 0x0c, 0x00, 0x04, 0x00,
  0x0c, 0x00, 0x00, 0x00, 0x03, 0x00, 0x00, 0x00, 0x00, 0x00, 0x00, 0x03,
  0x01, 0x00, 0x00, 0x00, 0xf0, 0xd4, 0xff, 0xff, 0x14, 0x00, 0x00, 0x00,
  0x0b, 0x00, 0x00, 0x00, 0x20, 0x00, 0x00, 0x00, 0xb0, 0x00, 0x00, 0x00,
  0x98, 0x00, 0x00, 0x00, 0x04, 0x00, 0x00, 0x00, 0x01, 0x00, 0x00, 0x00,
  0x40, 0x00, 0x00, 0x00, 0x03, 0x00, 0x00, 0x00, 0x08, 0x00, 0x00, 0x00,
  0x7b, 0x00, 0x00, 0x00, 0x73, 0x65, 0x71, 0x75, 0x65, 0x6e, 0x74, 0x69,
  0x61, 0x6c, 0x2f, 0x63, 0x6f, 0x6e, 0x76, 0x32, 0x64, 0x2f, 0x52, 0x65,
  0x6c, 0x75, 0x3b, 0x73, 0x65, 0x71, 0x75, 0x65, 0x6e, 0x74, 0x69, 0x61,
  0x6c, 0x2f, 0x63, 0x6f, 0x6e, 0x76, 0x32, 0x64, 0x2f, 0x42, 0x69, 0x61,
  0x73, 0x41, 0x64, 0x64, 0x3b, 0x73, 0x65, 0x71, 0x75, 0x65, 0x6e, 0x74,
  0x69, 0x61, 0x6c, 0x2f, 0x63, 0x6f, 0x6e, 0x76, 0x32, 0x64, 0x2f, 0x43,
  0x6f, 0x6e, 0x76, 0x32, 0x44, 0x3b, 0x73, 0x65, 0x71, 0x75, 0x65, 0x6e,
  0x74, 0x69, 0x61, 0x6c, 0x2f, 0x63, 0x6f, 0x6e, 0x76, 0x32, 0x64, 0x2f,
  0x42, 0x69, 0x61, 0x73, 0x41, 0x64, 0x64, 0x2f, 0x52, 0x65, 0x61, 0x64,
  0x56, 0x61, 0x72, 0x69, 0x61, 0x62, 0x6c, 0x65, 0x4f, 0x70, 0x2f, 0x72,
  0x65, 0x73, 0x6f, 0x75, 0x72, 0x63, 0x65, 0x00, 0x04, 0x00, 0x00, 0x00,
  0xff, 0xff, 0xff, 0xff, 0x40, 0x00, 0x00, 0x00, 0x03, 0x00, 0x00, 0x00,
  0x08, 0x00, 0x00, 0x00, 0x44, 0xd5, 0xff, 0xff, 0x4e, 0xd6, 0xff, 0xff,
  0x04, 0x00, 0x00, 0x00, 0x00, 0x08, 0x00, 0x00, 0xaa, 0xc1, 0x14, 0xbd,
  0xe4, 0x2b, 0x5c, 0x3f, 0x31, 0xcb, 0xe0, 0x3c, 0xdf, 0x04, 0x63, 0xbe,
  0xfa, 0x60, 0x84, 0xbd, 0x1f, 0xa8, 0x2b, 0x3e, 0x28, 0xd3, 0x4d, 0x3d,
  0x80, 0x6e, 0xd4, 0xbb, 0x9b, 0xc9, 0x66, 0x3c, 0xc3, 0xd5, 0xd6, 0xbc,
  0x54, 0x82, 0x62, 0xbc, 0xad, 0xda, 0x61, 0xbe, 0x49, 0x4a, 0x82, 0xbd,
  0x26, 0x35, 0xdc, 0x3c, 0x45, 0x5e, 0x1d, 0xbc, 0x09, 0xae, 0x15, 0xbd,
  0xf6, 0x9b, 0x78, 0x3c, 0x76, 0xdd, 0x81, 0xbd, 0xce, 0xa9, 0x4e, 0x3c,
  0x88, 0xd2, 0x2b, 0xbe, 0xaf, 0x0a, 0x88, 0xbd, 0xcb, 0x1c, 0x89, 0x3d,
  0x3e, 0xac, 0xba, 0x3d, 0x34, 0xae, 0x8c, 0x3c, 0xcb, 0x69, 0xa9, 0xbd,
  0x70, 0x8b, 0xc5, 0x3c, 0xd4, 0xed, 0xad, 0xbd, 0x52, 0x33, 0xbc, 0xbd,
  0x28, 0x75, 0xb0, 0xbd, 0xb3, 0x81, 0xae, 0xbe, 0x26, 0xd9, 0x84, 0xbd,
  0xc7, 0x7a, 0x00, 0x3d, 0xe1, 0x15, 0x8f, 0xbd, 0xc7, 0x5b, 0x83, 0xbe,
  0x49, 0xa5, 0x5b, 0xbe, 0x67, 0x1b, 0xa4, 0xbd, 0xf8, 0xb4, 0xda, 0xbd,
  0x34, 0x40, 0xff, 0xbe, 0x2e, 0x92, 0x6c, 0xbe, 0xa2, 0x2f, 0xf6, 0xbd,
  0xbe, 0xb3, 0x3a, 0xbd, 0xae, 0xeb, 0x67, 0xbe, 0x27, 0x00, 0x2b, 0xbe,
  0x80, 0x0d, 0x10, 0xbe, 0x04, 0x6c, 0x94, 0xbd, 0xba, 0x53, 0xb6, 0xbe,
  0xfb, 0xbf, 0xd9, 0xbd, 0x6e, 0xab, 0xaf, 0xbd, 0x36, 0x77, 0xc5, 0x3b,
  0x3e, 0x8f, 0xb8, 0x3d, 0x32, 0xd1, 0x8b, 0x3c, 0x2a, 0xb0, 0x31, 0xbd,
  0x57, 0xfa, 0x01, 0xbd, 0x61, 0x69, 0x1d, 0x3f, 0xf9, 0x4c, 0xe4, 0xbd,
  0xcf, 0xa4, 0x30, 0x3c, 0x07, 0x15, 0x39, 0x3d, 0x51, 0x7a, 0xd3, 0x3d,
  0x5a, 0xfd, 0x4f, 0x3d, 0xf3, 0x97, 0xcb, 0xbc, 0x04, 0xa8, 0x1d, 0x3e,
  0x23, 0x5f, 0xa0, 0x3e, 0x63, 0x5c, 0xfa, 0x3e, 0x5e, 0x2a, 0x90, 0xbd,
  0x31, 0xe0, 0x1a, 0x3e, 0xaa, 0xc3, 0x79, 0x3e, 0x3b, 0x3f, 0xc7, 0x3d,
  0xc4, 0xe8, 0x91, 0x3e, 0x26, 0xb2, 0xea, 0xbc, 0xec, 0x5e, 0x15, 0x3e,
  0x3b, 0xde, 0xb7, 0x3d, 0x82, 0xfe, 0x08, 0xbf, 0xb7, 0xb3, 0xe6, 0xbe,
  0x80, 0x6e, 0xa2, 0x3d, 0x4c, 0x8f, 0x66, 0xbf, 0x63, 0x86, 0x94, 0xbc,
  0xf4, 0xaa, 0x10, 0xbe, 0x98, 0xcf, 0xc0, 0xbe, 0x79, 0xeb, 0x6c, 0xbf,
  0x40, 0x6c, 0x34, 0xbf, 0x76, 0x1b, 0x93, 0xbe, 0x34, 0xc3, 0xc1, 0x3d,
  0x6d, 0xf7, 0x65, 0xbe, 0xb0, 0xf0, 0x11, 0xbd, 0x91, 0xa8, 0x0f, 0x3d,
  0x99, 0x6e, 0xf6, 0xbb, 0x82, 0x45, 0x2f, 0x3e, 0x0e, 0x96, 0xe2, 0x3a,
  0x8c, 0xff, 0xd6, 0x3d, 0x24, 0xe7, 0xf3, 0x3b, 0xaa, 0x11, 0x9a, 0xbd,
  0x06, 0xf3, 0xc9, 0xbd, 0xab, 0x31, 0xdc, 0xbd, 0x2e, 0xbd, 0xe8, 0xbd,
  0x1d, 0x79, 0x9b, 0x3e, 0x2c, 0x2e, 0xc5, 0xbd, 0xbb, 0x64, 0x77, 0xbd,
  0x5e, 0x8d, 0x24, 0xbe, 0xe9, 0xc8, 0x0d, 0xbe, 0x91, 0x01, 0x3d, 0xbe,
  0xc8, 0xa9, 0x7c, 0xbd, 0x6c, 0xf1, 0x51, 0x3d, 0x4a, 0xed, 0xab, 0x3c,
  0xfc, 0xce, 0x54, 0xbe, 0x0f, 0x63, 0xbd, 0x3e, 0x16, 0xa4, 0x0a, 0xbc,
  0xb5, 0x83, 0x5c, 0xbe, 0x44, 0x64, 0x47, 0xbd, 0xec, 0xdd, 0xc6, 0xbd,
  0x1f, 0x65, 0xf0, 0x3d, 0xeb, 0x6b, 0xaa, 0x3e, 0x6d, 0xdd, 0x0c, 0xbf,
  0xf2, 0x41, 0x59, 0xbe, 0xd2, 0x0e, 0xbc, 0x3d, 0x61, 0x60, 0x6c, 0xbe,
  0x35, 0x43, 0x26, 0x3e, 0x91, 0x6b, 0xeb, 0xbc, 0x91, 0xdb, 0x71, 0x3e,
  0x46, 0xea, 0x9e, 0x3d, 0xe0, 0xa6, 0x4d, 0xbf, 0x38, 0xbe, 0xaf, 0xbe,
  0x56, 0x3a, 0x54, 0x3e, 0xd2, 0x8c, 0x42, 0x3e, 0xaa, 0x91, 0xc6, 0x3a,
  0xcb, 0xad, 0xec, 0xbd, 0x4b, 0x09, 0x94, 0xbe, 0xf7, 0x7b, 0xc6, 0xbe,
  0xb7, 0xd9, 0x88, 0xbe, 0xbc, 0xdb, 0xf9, 0xbd, 0xfa, 0xcf, 0x99, 0xbd,
  0xec, 0x84, 0x4e, 0xbe, 0xb0, 0x7b, 0x2a, 0xbe, 0x7e, 0x34, 0xa8, 0xbe,
  0xbf, 0x4f, 0xee, 0xbe, 0x0e, 0x8b, 0xf1, 0xbd, 0x88, 0x8b, 0xc7, 0x3d,
  0x0f, 0x4d, 0xa1, 0xbe, 0x62, 0x94, 0x49, 0x3e, 0xc7, 0x1b, 0xaf, 0x3e,
  0x15, 0x29, 0xa8, 0xbe, 0xdc, 0x95, 0xa0, 0xbe, 0xb2, 0x09, 0x02, 0x3e,
  0xe2, 0x5d, 0x23, 0x3e, 0x23, 0x3a, 0xd1, 0x3c, 0x1a, 0x87, 0xb8, 0xbd,
  0x24, 0x9b, 0xec, 0xbe, 0x63, 0x86, 0x83, 0x3e, 0xfe, 0x8a, 0x98, 0xbe,
  0xf9, 0x1b, 0xc6, 0xbd, 0xd7, 0x39, 0x98, 0x3e, 0x9f, 0xe4, 0x99, 0x3c,
  0x0a, 0x80, 0x73, 0x3d, 0x2d, 0x9c, 0x12, 0xbe, 0x00, 0x0f, 0xdd, 0xbe,
  0xa5, 0xb9, 0x94, 0xbd, 0x29, 0x62, 0x97, 0xbd, 0x70, 0xb9, 0x63, 0xbd,
  0x0d, 0xca, 0x00, 0x3e, 0x2b, 0xc5, 0x99, 0xbd, 0xf2, 0xc4, 0x22, 0xbe,
  0x9b, 0xa3, 0x6d, 0xbe, 0x5d, 0xbb, 0x3d, 0xbe, 0xa5, 0x63, 0xe9, 0x3e,
  0x3d, 0x48, 0xdd, 0xbb, 0xc1, 0xdc, 0x29, 0xbc, 0x1f, 0x19, 0xea, 0xba,
  0xe5, 0xfa, 0x35, 0x3e, 0x88, 0x41, 0xaf, 0xba, 0x89, 0x30, 0xcb, 0xbe,
  0x4a, 0x01, 0xc5, 0xbd, 0x78, 0x6f, 0x95, 0xbe, 0xba, 0xcc, 0x03, 0x3b,
  0x27, 0x05, 0x7b, 0xbd, 0xf5, 0xfd, 0x00, 0x3d, 0xc6, 0x7c, 0x7f, 0xbc,
  0x9a, 0x84, 0xd4, 0xbe, 0x69, 0x0f, 0xa3, 0xbe, 0x80, 0xc1, 0x56, 0xbc,
  0xc0, 0x34, 0xfc, 0xbd, 0xfa, 0x10, 0x41, 0x3e, 0xb7, 0x5c, 0x5f, 0xbd,
  0xee, 0x37, 0x28, 0xbe, 0x98, 0x11, 0x8c, 0x3e, 0x4e, 0x67, 0x8b, 0xbe,
  0x73, 0x68, 0xce, 0xbd, 0xf8, 0x6b, 0x8e, 0xbe, 0x58, 0x6f, 0xac, 0xbd,
  0x69, 0x3b, 0x28, 0x3e, 0xde, 0xcb, 0x4c, 0x3e, 0xf3, 0x0b, 0x31, 0xbe,
  0x29, 0x0d, 0xb6, 0x3e, 0x55, 0xdc, 0xac, 0xbd, 0x9f, 0x92, 0x56, 0x3e,
  0xfb, 0x1b, 0xdb, 0xbe, 0xbf, 0x46, 0x25, 0x3e, 0xb9, 0xda, 0x8f, 0xbd,
  0xa4, 0x92, 0xf2, 0xbc, 0xa0, 0xef, 0x20, 0x3e, 0xbb, 0x9e, 0x90, 0x3e,
  0x1e, 0xac, 0x1e, 0xbd, 0xcc, 0x59, 0x3a, 0xbc, 0xe8, 0x5a, 0xc3, 0xbe,
  0x37, 0x8b, 0x78, 0xbe, 0xff, 0x5f, 0x18, 0xbd, 0xab, 0x0c, 0xab, 0xbd,
  0x9e, 0x3c, 0xa3, 0x3d, 0x55, 0xa0, 0xad, 0x3c, 0x1e, 0xfc, 0xe7, 0xbd,
  0xfc, 0x6c, 0x44, 0xbd, 0x9d, 0xfe, 0x88, 0xbc, 0x4b, 0xce, 0x3c, 0xbf,
  0xeb, 0xfc, 0x94, 0x3d, 0xe1, 0x2d, 0xeb, 0xbc, 0x64, 0x69, 0x8c, 0xbe,
  0x54, 0x4b, 0x15, 0xbf, 0xb6, 0xc7, 0x16, 0xbf, 0x01, 0x87, 0xbc, 0xbd,
  0x15, 0x45, 0xf1, 0x3e, 0x0d, 0xe0, 0x01, 0xbf, 0x52, 0x96, 0xa2, 0xbc,
  0x76, 0xfc, 0x42, 0x3d, 0xd8, 0xc1, 0x04, 0xbf, 0x46, 0x91, 0x35, 0xbe,
  0xf2, 0xbf, 0xb6, 0xbc, 0x6f, 0x8a, 0xa2, 0x3d, 0x1f, 0x19, 0x65, 0xbe,
  0x0e, 0x5e, 0x87, 0xbe, 0x57, 0x76, 0x31, 0xbf, 0xcb, 0x01, 0x63, 0xbe,
  0x9c, 0xc9, 0xb7, 0xbe, 0x07, 0x8c, 0xed, 0xbd, 0xbc, 0x4c, 0x5d, 0x3d,
  0xfb, 0xe2, 0x20, 0xbe, 0xfc, 0x62, 0xe1, 0x3e, 0xa1, 0x2c, 0xa1, 0xbe,
  0x93, 0xd1, 0xa3, 0x3d, 0xe5, 0xb4, 0x90, 0xbe, 0x50, 0xe4, 0xf9, 0xbe,
  0xae, 0x0f, 0x10, 0xbe, 0xb3, 0x79, 0x54, 0x3b, 0x4b, 0x02, 0xb2, 0xbd,
  0x36, 0xaa, 0x85, 0x3e, 0x1e, 0x5c, 0xa8, 0x3e, 0xfa, 0x24, 0x11, 0x3b,
  0x6f, 0xf6, 0xf3, 0xbd, 0xcd, 0x8d, 0xb4, 0x3d, 0x00, 0xa3, 0x86, 0x3c,
  0xdf, 0xf9, 0xe7, 0x3d, 0xaa, 0xa8, 0xa6, 0xbc, 0xd4, 0x97, 0x28, 0xbe,
  0xf6, 0xb6, 0xb7, 0xbc, 0x24, 0x68, 0x8f, 0xbe, 0x47, 0x76, 0xfe, 0xbd,
  0xc2, 0x94, 0x9f, 0x3d, 0x80, 0x06, 0x42, 0x3e, 0x59, 0xe1, 0x82, 0x3d,
  0xe5, 0xfc, 0xb0, 0xbd, 0x50, 0xce, 0xe8, 0x3c, 0x46, 0x56, 0x34, 0xbe,
  0x11, 0x89, 0x14, 0xbe, 0x3c, 0x71, 0xc5, 0xbd, 0x3c, 0x42, 0xcf, 0xbd,
  0xd4, 0x0c, 0xfb, 0x3b, 0x13, 0x89, 0xb2, 0xbe, 0x26, 0xcf, 0x13, 0x3d,
  0x7d, 0x5b, 0xb2, 0xbd, 0xe1, 0x8c, 0x52, 0xbe, 0x9f, 0x5d, 0xc8, 0xbd,
  0xec, 0x89, 0x06, 0x3d, 0xd6, 0xa8, 0x1e, 0x3d, 0x24, 0x47, 0x3d, 0x3d,
  0xc0, 0xef, 0xd8, 0xbe, 0xe2, 0x82, 0x1d, 0x3e, 0x7e, 0xcf, 0xba, 0x3e,
  0x53, 0x71, 0x12, 0xbe, 0xff, 0x26, 0x87, 0xbc, 0xc5, 0xf6, 0x5b, 0x3c,
  0x5e, 0xd6, 0xcd, 0x3d, 0xf0, 0x1c, 0xff, 0x3d, 0x7f, 0x25, 0xca, 0xbe,
  0x6f, 0xca, 0x0b, 0x3d, 0x24, 0x19, 0x10, 0x3c, 0x21, 0x4d, 0x83, 0xbc,
  0xb7, 0xac, 0xfa, 0x3e, 0x26, 0xa6, 0xa9, 0xbc, 0x45, 0xd6, 0xc0, 0x3d,
  0xdc, 0xa7, 0xb7, 0x3d, 0xe6, 0xca, 0xba, 0xbe, 0x07, 0xb1, 0x94, 0xbd,
  0x41, 0xdd, 0x72, 0xbe, 0x75, 0x72, 0x38, 0x3d, 0x16, 0x86, 0x2d, 0x3d,
  0xe8, 0x4b, 0x94, 0xbe, 0x9e, 0x8f, 0x3c, 0x3e, 0x89, 0x73, 0x5f, 0xbe,
  0xe1, 0xa5, 0x77, 0xbe, 0xc1, 0x66, 0x5a, 0x3e, 0x90, 0x26, 0x74, 0xbe,
  0x89, 0x62, 0x75, 0x3e, 0x87, 0x30, 0xcf, 0xbd, 0x50, 0x2c, 0xc2, 0xbe,
  0x82, 0x44, 0x15, 0xbe, 0x56, 0x8c, 0xa2, 0xbe, 0x09, 0xaf, 0x08, 0xbe,
  0x56, 0x73, 0x5d, 0x3e, 0xc9, 0x3b, 0x88, 0x3e, 0xb7, 0x35, 0xfd, 0xbe,
  0x74, 0xc3, 0xd0, 0x3d, 0xfc, 0x7c, 0xcb, 0xbe, 0x3f, 0xf4, 0x9e, 0xbd,
  0x36, 0xcf, 0x4b, 0xbe, 0x51, 0x79, 0x95, 0xba, 0x5a, 0x08, 0xa4, 0x3e,
  0xe9, 0xf9, 0xe9, 0xbe, 0xd6, 0xd2, 0x51, 0xbe, 0xc4, 0x0c, 0xcf, 0x3d,
  0x47, 0x42, 0x50, 0xbe, 0x75, 0x16, 0x86, 0xbd, 0xc9, 0xa6, 0x56, 0xbe,
  0xe1, 0x69, 0x23, 0x3e, 0x49, 0x93, 0x34, 0xbe, 0x9e, 0x1d, 0x63, 0x3d,
  0x1a, 0xe5, 0x38, 0x3d, 0xf7, 0x06, 0xe0, 0x3e, 0x08, 0xe7, 0x63, 0xbd,
  0x2e, 0xfe, 0x44, 0xbe, 0x64, 0xc4, 0x82, 0xbe, 0x82, 0x2a, 0x6f, 0xbe,
  0xf6, 0x51, 0x32, 0xbe, 0x2e, 0xc0, 0x6b, 0xbe, 0xbf, 0xac, 0x04, 0xbe,
  0x34, 0xf5, 0xae, 0xbd, 0xd2, 0xdb, 0xff, 0xbd, 0x6b, 0x71, 0x84, 0xbe,
  0x8d, 0xcb, 0xac, 0xbe, 0x18, 0xa2, 0x42, 0xbe, 0x95, 0x23, 0x0d, 0xbe,
  0xd4, 0xfe, 0x16, 0xbb, 0x6f, 0x7b, 0xeb, 0xbd, 0xf2, 0x58, 0x20, 0xbe,
  0x43, 0x78, 0x01, 0xbe, 0x64, 0x6d, 0x0e, 0x3e, 0x85, 0x2f, 0xe3, 0xbd,
  0xb6, 0x5e, 0x7d, 0xbd, 0xa7, 0xdc, 0x85, 0x3e, 0xdc, 0xf4, 0x35, 0x3d,
  0x4e, 0xce, 0x9d, 0xbd, 0x8a, 0x1f, 0x23, 0xbe, 0x89, 0xd6, 0xf5, 0xbb,
  0xdd, 0x8d, 0x71, 0x3e, 0xb0, 0x04, 0xec, 0x3e, 0xbe, 0x32, 0x58, 0x3e,
  0x1d, 0x9e, 0x7e, 0xbe, 0x12, 0xfd, 0x0b, 0x3d, 0x81, 0xd3, 0x8b, 0x3c,
  0x11, 0xb4, 0x06, 0xbe, 0xcc, 0x4d, 0xbf, 0xbd, 0xa7, 0xc5, 0xb7, 0x3c,
  0x5c, 0x59, 0x20, 0x3e, 0x66, 0xed, 0x1b, 0xbe, 0xef, 0x6b, 0xf3, 0xbb,
  0xb2, 0xa7, 0xd7, 0xbc, 0x5e, 0xba, 0x13, 0x3f, 0x96, 0x7f, 0x12, 0xbd,
  0x61, 0x68, 0xc9, 0x3b, 0x7e, 0x7e, 0x43, 0xbd, 0xe9, 0x61, 0x8b, 0xbd,
  0x1e, 0xe8, 0x1e, 0xbe, 0xd4, 0xdb, 0xa0, 0xbc, 0x35, 0x1e, 0x13, 0xbe,
  0x7a, 0x31, 0x34, 0xbe, 0xba, 0x0e, 0x38, 0x3e, 0xf9, 0x07, 0xe9, 0x3d,
  0x3c, 0x28, 0x50, 0x3d, 0xde, 0x04, 0xf5, 0xbd, 0x06, 0x81, 0x9b, 0xbe,
  0x07, 0xa9, 0x05, 0x3d, 0xb0, 0x16, 0x80, 0x3d, 0x5e, 0xf3, 0x50, 0xbe,
  0xc6, 0xb8, 0xbe, 0xbd, 0xb3, 0xbf, 0x18, 0x3e, 0xfe, 0x24, 0xd9, 0xbe,
  0x3d, 0xc1, 0xf1, 0x3c, 0x82, 0x02, 0x93, 0xbe, 0xfd, 0x32, 0x19, 0xbd,
  0x32, 0x48, 0xe5, 0x3c, 0xff, 0x9a, 0x6d, 0xbd, 0xfb, 0x1a, 0x27, 0xbe,
  0xf1, 0x61, 0xb5, 0xbd, 0x24, 0x53, 0x02, 0xbf, 0xc2, 0x66, 0x43, 0xbe,
  0x9d, 0x36, 0x61, 0xbd, 0x39, 0x3b, 0xb7, 0xbd, 0x45, 0xbf, 0x81, 0xbe,
  0x99, 0xdc, 0x03, 0xbd, 0x68, 0xd1, 0x44, 0xbe, 0xbe, 0x99, 0x10, 0xbe,
  0x33, 0xf4, 0x38, 0x3d, 0x8d, 0x12, 0x8c, 0xbd, 0x5c, 0x78, 0x51, 0xbc,
  0xb4, 0x44, 0x0e, 0x3d, 0xc5, 0xc1, 0x53, 0xbe, 0xbc, 0x37, 0xc9, 0x3c,
  0x6d, 0x10, 0x32, 0xbe, 0xfd, 0x97, 0x9c, 0x3d, 0x6c, 0xbb, 0xea, 0x3d,
  0xd3, 0x44, 0x12, 0x3f, 0x8b, 0xa8, 0xa6, 0xbd, 0xf5, 0xaf, 0x11, 0x3e,
  0x8c, 0x53, 0x92, 0xbd, 0x38, 0x9f, 0x24, 0x3d, 0xcb, 0x7c, 0xdd, 0x3d,
  0xfb, 0x45, 0x99, 0xbc, 0x8e, 0x93, 0xe4, 0x3e, 0x52, 0x5d, 0x51, 0xbe,
  0xe1, 0x55, 0xfb, 0xbd, 0x8c, 0x2a, 0x51, 0xbe, 0xf1, 0x75, 0xf6, 0x3d,
  0x45, 0xc9, 0x7c, 0xbe, 0xd0, 0xda, 0x64, 0x3c, 0xbc, 0xef, 0xdb, 0xbe,
  0x5e, 0xb6, 0x6d, 0x3e, 0x2e, 0xf0, 0x22, 0xbe, 0xd1, 0x5d, 0xf3, 0xbd,
  0xf5, 0x0d, 0x9e, 0xbe, 0x3b, 0x2a, 0x80, 0x3e, 0xda, 0xd1, 0x8c, 0x3b,
  0xf0, 0xfd, 0xa2, 0x3d, 0xed, 0x5d, 0xb6, 0xbe, 0x15, 0xf4, 0x30, 0x3e,
  0x0a, 0x86, 0x26, 0xbd, 0xf9, 0xe3, 0xed, 0x3e, 0xfb, 0xcc, 0x3e, 0xbe,
  0xbf, 0x15, 0x0d, 0xbd, 0x05, 0x09, 0x20, 0xbe, 0x80, 0xbe, 0xd1, 0x3c,
  0xc8, 0x76, 0x9a, 0xbe, 0x06, 0xa2, 0x4c, 0x3e, 0xc3, 0x79, 0x40, 0xbc,
  0xdf, 0x45, 0x01, 0x3d, 0x38, 0x4c, 0x95, 0xbe, 0xf1, 0xc2, 0x23, 0x3e,
  0xbe, 0x91, 0x8b, 0xbd, 0x16, 0x78, 0x38, 0x3e, 0x07, 0x00, 0x87, 0xbe,
  0x6c, 0x36, 0xec, 0x3e, 0x9f, 0xc4, 0x50, 0xbd, 0xeb, 0xe0, 0x1c, 0x3d,
  0xc3, 0x42, 0x5e, 0xbd, 0xc1, 0xf3, 0xd8, 0xbc, 0x3a, 0xf6, 0x1a, 0xbd,
  0xd8, 0x1d, 0xa1, 0x3d, 0x1b, 0xfa, 0x91, 0x3e, 0xfc, 0xd2, 0x4e, 0xbd,
  0xb7, 0x94, 0xe6, 0xbd, 0x72, 0xe2, 0x54, 0x3e, 0xcd, 0x3e, 0x0d, 0x3e,
  0x91, 0x84, 0x92, 0x3c, 0x19, 0x2c, 0xbb, 0xbd, 0xce, 0xef, 0x5d, 0x3e,
  0xf1, 0xdc, 0x6d, 0xbc, 0x95, 0xbd, 0x12, 0x3d, 0x05, 0x86, 0xb4, 0xbb,
  0x70, 0x55, 0x50, 0xbd, 0x12, 0xe7, 0xe0, 0x3c, 0xa7, 0x78, 0xed, 0x3d,
  0x2d, 0x03, 0x14, 0xbc, 0xf7, 0xd5, 0x91, 0xbd, 0xe2, 0x07, 0xf1, 0x3a,
  0x08, 0x2d, 0x8d, 0xbc, 0x4c, 0x8d, 0x23, 0xbd, 0x08, 0x99, 0x75, 0x3e,
  0x61, 0x4d, 0xfd, 0xbc, 0x01, 0xb5, 0xa6, 0xbd, 0xc8, 0x22, 0x26, 0x3c,
  0x81, 0x9d, 0x7f, 0x3e, 0xf1, 0x64, 0xaf, 0x3c, 0xfe, 0x21, 0x2d, 0x3d,
  0xbe, 0xb3, 0x14, 0x3b, 0x70, 0xd4, 0xe2, 0xbc, 0xc8, 0x6a, 0x97, 0xbd,
  0x4e, 0x7b, 0x41, 0xbf, 0x0b, 0x0b, 0xce, 0xbe, 0x62, 0xea, 0x26, 0xbe,
  0x01, 0x10, 0x6c, 0xbd, 0x1a, 0x73, 0x94, 0xbe, 0x56, 0x86, 0xb4, 0xbc,
  0x85, 0xb5, 0x4a, 0xbe, 0x35, 0x10, 0x6b, 0xbe, 0xa2, 0x67, 0x19, 0xbf,
  0x25, 0x9b, 0xae, 0xbe, 0x8a, 0x99, 0x2d, 0xbe, 0x42, 0xe1, 0xa7, 0x3c,
  0x81, 0x45, 0x58, 0x3e, 0xad, 0x34, 0xe7, 0xbd, 0x22, 0x96, 0x65, 0xbd,
  0xec, 0xb5, 0x8c, 0xbe, 0x26, 0x69, 0xa1, 0xbe, 0xe0, 0x61, 0xb9, 0xbe,
  0x07, 0x2f, 0x9b, 0xbd, 0x24, 0x6c, 0x97, 0xbd, 0xd0, 0xb4, 0x68, 0xbe,
  0x04, 0xb9, 0x79, 0xbd, 0xa7, 0x08, 0x92, 0xbe, 0x8a, 0xc1, 0x9d, 0x3d,
  0x72, 0x47, 0xe5, 0xbe, 0x83, 0x21, 0x73, 0xbd, 0xcd, 0x28, 0x48, 0x3e,
  0xc5, 0xc0, 0x9a, 0xbd, 0x21, 0x33, 0xfb, 0x3d, 0x7c, 0x44, 0x94, 0x3d,
  0xd6, 0xe4, 0xe1, 0xbe, 0x26, 0xde, 0xff, 0xff, 0x10, 0x00, 0x00, 0x00,
  0x0a, 0x00, 0x00, 0x00, 0x1c, 0x00, 0x00, 0x00, 0x38, 0x00, 0x00, 0x00,
  0x04, 0x00, 0x00, 0x00, 0x10, 0x00, 0x00, 0x00, 0x04, 0x00, 0x00, 0x00,
  0x01, 0x00, 0x00, 0x00, 0x08, 0x00, 0x00, 0x00, 0x1a, 0x00, 0x00, 0x00,
  0x73, 0x65, 0x71, 0x75, 0x65, 0x6e, 0x74, 0x69, 0x61, 0x6c, 0x2f, 0x63,
  0x6f, 0x6e, 0x76, 0x32, 0x64, 0x5f, 0x31, 0x2f, 0x43, 0x6f, 0x6e, 0x76,
  0x32, 0x44, 0x00, 0x00, 0x9c, 0xdd, 0xff, 0xff, 0xa6, 0xde, 0xff, 0xff,
  0x04, 0x00, 0x00, 0x00, 0x80, 0x01, 0x00, 0x00, 0x02, 0x1b, 0x5d, 0x3e,
  0x04, 0xe5, 0xf7, 0x3c, 0x8d, 0x7e, 0xbd, 0xbd, 0xaa, 0xde, 0x98, 0x3d,
  0x5d, 0x50, 0x36, 0x3e, 0xac, 0x2c, 0x26, 0xbd, 0xb1, 0xfe, 0xd1, 0x3d,
  0xe3, 0xde, 0xb9, 0xbd, 0x9d, 0xf3, 0x09, 0xbe, 0x48, 0xf9, 0x7e, 0x3e,
  0x1c, 0xa2, 0xb8, 0xbd, 0x0c, 0x42, 0xac, 0xbd, 0x0d, 0x01, 0x8e, 0x3d,
  0x4b, 0x43, 0xa9, 0xbb, 0xde, 0xa1, 0xf2, 0xbd, 0xc8, 0x19, 0x7f, 0xbd,
  0xca, 0x8b, 0x8a, 0xbe, 0x41, 0x33, 0x0d, 0xbf, 0xd7, 0x3f, 0x45, 0xbd,
  0xcb, 0x2f, 0x7b, 0x3e, 0x87, 0xf0, 0xf7, 0x3d, 0xc3, 0x7f, 0x7d, 0x3e,
  0x48, 0x40, 0xd6, 0x3d, 0x87, 0xca, 0x08, 0x3f, 0x44, 0x73, 0x5c, 0x3e,
  0x12, 0x9a, 0x62, 0x3e, 0x41, 0x2d, 0x7d, 0x3e, 0x01, 0xbb, 0xca, 0x3d,
  0x36, 0x48, 0x87, 0x3e, 0xa4, 0x17, 0x27, 0x3e, 0xa8, 0xdc, 0x0b, 0xbc,
  0x13, 0x6c, 0xb0, 0x3c, 0xd8, 0xf1, 0x3b, 0x3d, 0x76, 0xad, 0xdd, 0xbd,
  0xe2, 0x05, 0x13, 0xbe, 0x12, 0x63, 0x33, 0xbe, 0x3e, 0x93, 0x7b, 0xbd,
  0x73, 0x4c, 0x86, 0xbe, 0x12, 0x05, 0xce, 0x3e, 0x90, 0x2e, 0xb1, 0x3d,
  0xf1, 0x13, 0x20, 0xbe, 0x03, 0x8b, 0x4f, 0xbd, 0x25, 0x67, 0xa9, 0xbc,
  0x57, 0xd5, 0x08, 0x3d, 0x13, 0xfc, 0xa4, 0xbd, 0x30, 0x0a, 0xc7, 0xbd,
  0x38, 0x12, 0xab, 0x3e, 0xd3, 0x39, 0x71, 0xbd, 0x18, 0xcc, 0x85, 0x3d,
  0x7a, 0x6c, 0x8e, 0x3d, 0x01, 0xc6, 0x2b, 0x3e, 0xac, 0x30, 0x20, 0xbe,
  0x5f, 0x6f, 0xd3, 0x3c, 0x7e, 0xdc, 0x46, 0x3b, 0xcf, 0x64, 0xd2, 0xbb,
  0xd5, 0xb0, 0x32, 0x3d, 0x7b, 0xe5, 0x9b, 0xbc, 0x1b, 0x7f, 0xd1, 0xbd,
  0x27, 0x83, 0x16, 0x3e, 0x4b, 0x71, 0xf3, 0xbc, 0xb4, 0x4a, 0xd8, 0x3d,
  0x5d, 0x90, 0x4e, 0x3e, 0xde, 0xb0, 0xa7, 0xbc, 0xdd, 0xca, 0xae, 0x3e,
  0x61, 0x68, 0xa0, 0x3e, 0x65, 0xe7, 0xd1, 0x3e, 0xc3, 0x45, 0xc9, 0xbd,
  0x90, 0x46, 0x97, 0xbd, 0x16, 0xfe, 0x85, 0xbd, 0x79, 0x15, 0x71, 0xbe,
  0xaf, 0xe2, 0xd5, 0xbe, 0xeb, 0x89, 0x8c, 0xbe, 0x01, 0x74, 0x04, 0x3e,
  0x07, 0x90, 0x7a, 0x3c, 0xe3, 0x4f, 0x5e, 0xbc, 0x8c, 0x87, 0x07, 0x3f,
  0x40, 0x74, 0x12, 0x3e, 0x97, 0x97, 0xf0, 0xbb, 0x37, 0x55, 0xd5, 0xbd,
  0xdd, 0x0e, 0xc5, 0xbd, 0xfe, 0x11, 0x20, 0x3e, 0x87, 0x88, 0xa3, 0xbe,
  0x4a, 0x8d, 0x0f, 0xbe, 0xf0, 0x76, 0xab, 0x3d, 0x1e, 0x34, 0x0e, 0x3f,
  0x57, 0x85, 0x73, 0x3d, 0xb3, 0x20, 0x98, 0xbd, 0x7d, 0x0b, 0xbd, 0xbe,
  0x5e, 0x9f, 0x29, 0xbc, 0x76, 0x02, 0x01, 0xbe, 0xf8, 0x3e, 0xce, 0x3e,
  0x85, 0x9c, 0x4c, 0x3e, 0xae, 0x42, 0x09, 0x3e, 0xaf, 0x34, 0xae, 0xbd,
  0x59, 0x9b, 0x89, 0x3d, 0xf8, 0x6b, 0x85, 0x3c, 0xfe, 0xdf, 0xff, 0xff,
  0x10, 0x00, 0x00, 0x00, 0x09, 0x00, 0x00, 0x00, 0x1c, 0x00, 0x00, 0x00,
  0x38, 0x00, 0x00, 0x00, 0x04, 0x00, 0x00, 0x00, 0x08, 0x00, 0x00, 0x00,
  0x04, 0x00, 0x00, 0x00, 0x03, 0x00, 0x00, 0x00, 0x01, 0x00, 0x00, 0x00,
  0x18, 0x00, 0x00, 0x00, 0x73, 0x65, 0x71, 0x75, 0x65, 0x6e, 0x74, 0x69,
  0x61, 0x6c, 0x2f, 0x63, 0x6f, 0x6e, 0x76, 0x32, 0x64, 0x2f, 0x43, 0x6f,
  0x6e, 0x76, 0x32, 0x44, 0x00, 0x00, 0x00, 0x00, 0x74, 0xdf, 0xff, 0xff,
  0x7e, 0xe0, 0xff, 0xff, 0x04, 0x00, 0x00, 0x00, 0xc0, 0x00, 0x00, 0x00,
  0x4a, 0x1c, 0xa2, 0xbe, 0xe9, 0xef, 0x84, 0x3d, 0xed, 0xf3, 0xde, 0xbe,
  0xdd, 0x7a, 0xb3, 0x3e, 0x0a, 0x5f, 0x08, 0xbe, 0x5c, 0xb5, 0xbb, 0x3e,
  0x65, 0x63, 0x7a, 0xbe, 0x17, 0x78, 0xe3, 0x3d, 0x30, 0x18, 0xa9, 0xbe,
  0x00, 0x40, 0x7f, 0x3e, 0xa4, 0xc6, 0x39, 0x3e, 0xe2, 0x30, 0xa9, 0x3b,
  0x02, 0xbb, 0x58, 0xbd, 0xda, 0x92, 0x76, 0xbe, 0x0f, 0x94, 0x09, 0x3e,
  0x06, 0x85, 0x0a, 0x3e, 0xba, 0x04, 0x8e, 0xbe, 0x6a, 0x39, 0x3d, 0x3e,
  0x5b, 0x51, 0xbe, 0xbe, 0x93, 0x95, 0xa9, 0x3e, 0xa5, 0x5c, 0x92, 0xbd,
  0xc9, 0xc5, 0xd5, 0x3e, 0x23, 0x97, 0xc1, 0x3e, 0x76, 0x7e, 0x1f, 0x3e,
  0x0a, 0x87, 0xc6, 0xbe, 0x96, 0x21, 0x82, 0x3e, 0x68, 0x56, 0x3c, 0xbd,
  0x4f, 0xff, 0x79, 0x3d, 0x45, 0xe6, 0x8b, 0xbd, 0xac, 0x45, 0x55, 0xbe,
  0xd7, 0x91, 0x3e, 0x3e, 0xc0, 0xf9, 0x5e, 0x3e, 0x9c, 0x53, 0x0a, 0xbc,
  0x4b, 0x2f, 0x59, 0x3e, 0x0a, 0x10, 0xce, 0xbe, 0xa8, 0x5e, 0xb4, 0xbe,
  0x90, 0x63, 0x0e, 0xbe, 0x32, 0x82, 0xbf, 0x3e, 0x3a, 0x35, 0x08, 0x3e,
  0xa2, 0xe6, 0x9d, 0x3d, 0xea, 0xac, 0xd0, 0xbe, 0x71, 0x21, 0x46, 0x3e,
  0x1d, 0x67, 0x26, 0xbf, 0x46, 0x54, 0xdf, 0x3d, 0x6c, 0x44, 0xc3, 0xbd,
  0x61, 0x91, 0x22, 0xbe, 0xf3, 0x49, 0x51, 0x3e, 0xf3, 0x40, 0x1e, 0x3e,
  0x16, 0xe1, 0xff, 0xff, 0x10, 0x00, 0x00, 0x00, 0x08, 0x00, 0x00, 0x00,
  0x14, 0x00, 0x00, 0x00, 0x30, 0x00, 0x00, 0x00, 0x02, 0x00, 0x00, 0x00,
  0x03, 0x00, 0x00, 0x00, 0x10, 0x00, 0x00, 0x00, 0x19, 0x00, 0x00, 0x00,
  0x73, 0x65, 0x71, 0x75, 0x65, 0x6e, 0x74, 0x69, 0x61, 0x6c, 0x2f, 0x64,
  0x65, 0x6e, 0x73, 0x65, 0x5f, 0x31, 0x2f, 0x4d, 0x61, 0x74, 0x4d, 0x75,
  0x6c, 0x00, 0x00, 0x00, 0x84, 0xe0, 0xff, 0xff, 0x8e, 0xe1, 0xff, 0xff,
  0x04, 0x00, 0x00, 0x00, 0x00, 0x1c, 0x00, 0x00, 0x71, 0x07, 0x42, 0x3d,
  0x5f, 0xf5, 0x1b, 0xbd, 0xcc, 0xcb, 0xe8, 0xbd, 0xa4, 0x45, 0xd4, 0xbd,
  0xf6, 0x65, 0x38, 0x3e, 0x76, 0x27, 0xbd, 0x3c, 0x54, 0x90, 0x8f, 0xbd,
  0xa2, 0x3b, 0x1f, 0xbe, 0x5c, 0x66, 0xb5, 0x3d, 0x58, 0xbf, 0xcc, 0x3e,
  0x87, 0xb9, 0x7f, 0xbd, 0xc1, 0xed, 0x9d, 0xbe, 0xb7, 0xb4, 0xbf, 0x3c,
  0x01, 0x04, 0x63, 0xbd, 0x69, 0xa3, 0x26, 0xbe, 0x3a, 0xd9, 0xcd, 0x3d,
  0x5d, 0x20, 0x75, 0xbe, 0xbe, 0x09, 0x12, 0xbd, 0xe4, 0xfc, 0x76, 0x3c,
  0x0d, 0x3b, 0x39, 0x3e, 0x1e, 0x39, 0xef, 0xbd, 0x4b, 0x3f, 0x14, 0xbe,
  0x95, 0x49, 0x95, 0x3d, 0x4e, 0x19, 0x29, 0xbe, 0x7b, 0x62, 0x12, 0x3e,
  0xe2, 0x01, 0xe2, 0x3e, 0xa8, 0xda, 0x92, 0xbc, 0xcf, 0x24, 0x8a, 0x3d,
  0x47, 0xd1, 0xf2, 0xbd, 0xfe, 0x17, 0x6d, 0x3e, 0xe9, 0xab, 0xad, 0xbe,
  0x42, 0xd3, 0x85, 0x3e, 0x4f, 0xd8, 0x06, 0xbe, 0xb0, 0x39, 0x30, 0x3c,
  0x01, 0x03, 0x40, 0x3d, 0x16, 0xe8, 0x16, 0x3e, 0xca, 0xed, 0x95, 0x3d,
  0x37, 0x2e, 0x4c, 0x3e, 0xf3, 0xd6, 0x10, 0xbd, 0xca, 0x20, 0x21, 0xbe,
  0xd8, 0xbe, 0x1c, 0x3d, 0x2d, 0xfc, 0xa4, 0x3e, 0x2a, 0x58, 0xf6, 0x3d,
  0x2b, 0x29, 0x0a, 0xbd, 0xf6, 0x6f, 0x19, 0x3d, 0xa7, 0x18, 0xdb, 0x3e,
  0x41, 0x4b, 0x2a, 0xbe, 0xa0, 0x19, 0x06, 0xbe, 0x6d, 0x42, 0x5b, 0xbe,
  0x89, 0x7a, 0x12, 0xbe, 0xa1, 0x57, 0x20, 0xbe, 0x4b, 0xc4, 0x97, 0x3c,
  0x97, 0xff, 0x5a, 0x3d, 0x69, 0xa8, 0xca, 0xbd, 0xdb, 0xc8, 0x02, 0x3d,
  0x05, 0x58, 0x20, 0xbe, 0x02, 0xd8, 0xd4, 0xbc, 0x2e, 0x41, 0xe3, 0x3d,
  0x01, 0x38, 0xca, 0x3d, 0x00, 0xd3, 0xde, 0xbc, 0xf1, 0xbd, 0xb0, 0xbd,
  0x9b, 0xe4, 0x03, 0x3e, 0xc5, 0x1d, 0x52, 0xbd, 0x0d, 0x05, 0xf5, 0xbc,
  0x21, 0x99, 0xa6, 0xbc, 0xf0, 0x7b, 0xc6, 0xbd, 0x15, 0x2f, 0x24, 0xbe,
  0x57, 0x9f, 0x11, 0xbc, 0x73, 0x9a, 0x3a, 0xbe, 0xff, 0xba, 0xf0, 0xbd,
  0x62, 0x69, 0x18, 0x3e, 0xcc, 0xed, 0x60, 0xbe, 0x6b, 0xa2, 0xab, 0xbc,
  0x7a, 0xb6, 0xe9, 0x3e, 0x03, 0xae, 0x7a, 0xbe, 0x56, 0x37, 0x60, 0xbe,
  0x64, 0xc4, 0x04, 0x3e, 0x46, 0x53, 0x6a, 0x3e, 0x69, 0xda, 0xfa, 0xbd,
  0xf4, 0xfd, 0x80, 0xbd, 0x4a, 0xf1, 0xc5, 0x3d, 0x3a, 0x04, 0x79, 0xbc,
  0x93, 0xdf, 0x49, 0x3c, 0xbc, 0xb2, 0x90, 0xbd, 0x9a, 0xbc, 0x7b, 0xbc,
  0xc7, 0x21, 0xae, 0xbd, 0x33, 0x49, 0xd8, 0xbd, 0x73, 0xbb, 0x5e, 0xbe,
  0xce, 0x42, 0x9e, 0x3c, 0xbe, 0xc9, 0x58, 0x3d, 0x0b, 0x52, 0x00, 0xbd,
  0xcd, 0xa1, 0x3c, 0xbd, 0xac, 0x54, 0x28, 0xbe, 0x0c, 0x31, 0x29, 0x3d,
  0x15, 0x1f, 0x8e, 0xbe, 0x7d, 0xcd, 0xe4, 0xbd, 0x04, 0x47, 0x94, 0xbe,
  0x1c, 0xa5, 0x7d, 0xbd, 0x58, 0x9e, 0xc3, 0xbd, 0x66, 0x0f, 0xa6, 0xbd,
  0x20, 0xbd, 0x89, 0x3d, 0x00, 0xa3, 0x7f, 0x3e, 0x54, 0x51, 0x12, 0xbd,
  0x29, 0xc1, 0xac, 0xbc, 0xab, 0x94, 0x11, 0xbe, 0x8b, 0xb7, 0x6e, 0x3e,
  0x26, 0x99, 0x7b, 0xbe, 0x70, 0xf2, 0x21, 0xbd, 0x3f, 0x94, 0x78, 0xbd,
  0xba, 0xb3, 0xbc, 0xbc, 0xad, 0x10, 0x99, 0xbc, 0xf4, 0x99, 0x43, 0x3e,
  0xc3, 0x8a, 0xd3, 0xbd, 0xa0, 0x15, 0x7e, 0xbd, 0x6b, 0x68, 0x6f, 0xbe,
  0x64, 0x50, 0xae, 0xbe, 0xa2, 0x4a, 0x1a, 0x3e, 0xfe, 0x07, 0x01, 0x3e,
  0x60, 0xdd, 0x77, 0xbe, 0xe1, 0x5c, 0x82, 0xbd, 0x90, 0x42, 0x67, 0xbe,
  0x22, 0x9d, 0xdb, 0x3e, 0x8c, 0xc1, 0x2e, 0xbe, 0xa3, 0x33, 0x33, 0xbe,
  0x44, 0x4a, 0xb1, 0xbd, 0x69, 0xc8, 0x80, 0x3d, 0x17, 0xb9, 0xd4, 0x3c,
  0xc5, 0xfe, 0x86, 0x3e, 0x0e, 0x51, 0xbf, 0x3c, 0x6f, 0x24, 0x2f, 0xbe,
  0xe2, 0xff, 0x06, 0x3e, 0xd6, 0x15, 0x1c, 0xbd, 0x8c, 0x23, 0x8a, 0xbc,
  0x34, 0x2e, 0xde, 0x3d, 0x7d, 0x53, 0xe3, 0x3d, 0x8f, 0xff, 0xab, 0x3e,
  0xbf, 0xce, 0x8a, 0x3c, 0x09, 0x3b, 0x1e, 0x3f, 0xc0, 0x29, 0xa2, 0xbe,
  0xb6, 0x2a, 0x98, 0x3b, 0x7a, 0x05, 0x3f, 0xbe, 0xee, 0xfa, 0x12, 0x3e,
  0xc9, 0x12, 0xed, 0x3c, 0x01, 0xd5, 0x90, 0x3d, 0x18, 0x1a, 0xcf, 0x3d,
  0x0b, 0x1e, 0x71, 0xbe, 0x40, 0x6c, 0x13, 0x3e, 0x01, 0xd4, 0xad, 0xbd,
  0x82, 0x0d, 0x38, 0x3e, 0x82, 0x76, 0x87, 0x3e, 0xf0, 0x46, 0x57, 0xbe,
  0xbe, 0xb2, 0xe2, 0x3e, 0x98, 0x6d, 0xab, 0x3d, 0xed, 0x82, 0x34, 0x3e,
  0xb1, 0x40, 0x99, 0xbe, 0xe5, 0xe1, 0xf3, 0x3d, 0x22, 0x1e, 0x01, 0xbe,
  0xdf, 0xbe, 0x23, 0x3e, 0x1e, 0x36, 0x3e, 0x3d, 0xb5, 0x08, 0x5b, 0xbe,
  0xa2, 0x86, 0xa7, 0xbb, 0xce, 0x95, 0x71, 0xbe, 0xec, 0x70, 0x62, 0xbe,
  0x4d, 0x8e, 0x45, 0xbe, 0x41, 0x90, 0x1d, 0x3e, 0x1c, 0xe6, 0x98, 0x3a,
  0xcc, 0xea, 0xd8, 0xbc, 0xfa, 0x38, 0x30, 0x3e, 0x9a, 0x3d, 0x98, 0xbc,
  0xe3, 0x0c, 0x0a, 0x3e, 0xe7, 0xc2, 0x39, 0xbe, 0x72, 0x22, 0xf0, 0xbb,
  0x33, 0x30, 0xbf, 0xbd, 0x8d, 0x84, 0xed, 0x3d, 0x43, 0x2e, 0xc8, 0x3c,
  0xca, 0x72, 0x37, 0xbe, 0xeb, 0xaa, 0x59, 0x3c, 0xd3, 0x5a, 0x60, 0xbe,
  0x60, 0xb3, 0x14, 0x3e, 0x5a, 0x4c, 0xa9, 0xbe, 0x7e, 0xe3, 0xb3, 0xbd,
  0x14, 0x0c, 0x50, 0xbd, 0xac, 0x57, 0x1b, 0xbe, 0xa4, 0x09, 0x67, 0x3e,
  0x6d, 0x0d, 0x45, 0x3b, 0x77, 0xcb, 0x64, 0x3e, 0x24, 0xd8, 0x71, 0xbe,
  0x27, 0x37, 0x41, 0xbd, 0x79, 0x05, 0xfc, 0x3c, 0x8b, 0xa9, 0x6e, 0x3e,
  0x9c, 0xb6, 0x33, 0x3d, 0xfc, 0x92, 0xdc, 0xbd, 0xb1, 0xdb, 0x14, 0x3e,
  0x6f, 0xd4, 0x94, 0xbe, 0x9e, 0x83, 0x19, 0xbe, 0x05, 0x44, 0x4e, 0xbe,
  0x0b, 0x9c, 0x23, 0xbe, 0xda, 0xb4, 0x2d, 0xbc, 0xc4, 0x5e, 0x68, 0xbe,
  0xf9, 0xb0, 0x29, 0x3e, 0xf2, 0x2a, 0xd7, 0xbd, 0xc8, 0x23, 0x6a, 0x3e,
  0x82, 0xc8, 0x6a, 0xbe, 0xa4, 0x98, 0xe0, 0xbc, 0x6d, 0x1f, 0xbe, 0xbe,
  0xaf, 0x7a, 0xd2, 0x3d, 0x5c, 0xf3, 0xd7, 0x3c, 0x33, 0x8f, 0xb7, 0x3c,
  0x6e, 0x94, 0x53, 0x3d, 0x97, 0xfe, 0xe6, 0xbd, 0xe8, 0x5a, 0x21, 0xbe,
  0x3a, 0x10, 0x06, 0xbc, 0xaf, 0x79, 0xf7, 0xbc, 0x06, 0xc6, 0xb8, 0x3d,
  0x7f, 0x83, 0xc6, 0x3c, 0x9c, 0x65, 0xe4, 0x3d, 0x0d, 0x54, 0x16, 0xbd,
  0xff, 0xf6, 0x6a, 0x3e, 0x11, 0x18, 0xd6, 0xbc, 0xd4, 0x1c, 0xb9, 0x3c,
  0x69, 0x6d, 0xb2, 0xbc, 0xe2, 0x4c, 0x00, 0x3d, 0xcb, 0x3b, 0x1a, 0x3d,
  0x97, 0x2e, 0xff, 0x3d, 0xf7, 0x2f, 0x49, 0x3e, 0x59, 0x4d, 0x7b, 0x3d,
  0x40, 0xeb, 0x85, 0xbe, 0x06, 0x50, 0x8e, 0xbe, 0xfb, 0xe7, 0xa7, 0x3e,
  0x83, 0x31, 0x53, 0x3e, 0xf0, 0xeb, 0x09, 0x3e, 0x2c, 0x48, 0x01, 0x3e,
  0xe7, 0xba, 0x29, 0xbf, 0xea, 0x64, 0x11, 0xbe, 0x11, 0xb8, 0x85, 0xbc,
  0xf3, 0x53, 0xcc, 0x3d, 0x21, 0x27, 0x3b, 0x3d, 0x07, 0xef, 0x27, 0x3d,
  0x6e, 0x0c, 0x01, 0xbd, 0x06, 0x77, 0x20, 0xbe, 0x48, 0x4c, 0x01, 0xbe,
  0x88, 0xcf, 0xa7, 0xbd, 0xdd, 0x93, 0xe6, 0x3e, 0x68, 0x97, 0x51, 0x3d,
  0x1e, 0x67, 0x22, 0xbe, 0x2e, 0x65, 0x37, 0xba, 0x8f, 0x9a, 0x43, 0x3e,
  0xa3, 0x41, 0xba, 0xbe, 0xfa, 0xc0, 0x16, 0x3e, 0x08, 0xb8, 0x88, 0xbc,
  0x5d, 0x01, 0xd8, 0xbd, 0x0c, 0x96, 0xa1, 0xbe, 0xfa, 0x7e, 0x65, 0xbe,
  0xa6, 0xee, 0x1c, 0xbf, 0x6c, 0xd7, 0xaa, 0xbc, 0xfc, 0xd2, 0xab, 0xbd,
  0x02, 0x49, 0x0a, 0x3d, 0x4f, 0x09, 0x20, 0xbf, 0xec, 0x8c, 0x7b, 0xbe,
  0x6e, 0x49, 0xa6, 0xbe, 0xd4, 0xc5, 0x0d, 0xbe, 0x47, 0xef, 0x0e, 0xbd,
  0x91, 0x7a, 0xb9, 0xbc, 0x58, 0x05, 0x1a, 0xbe, 0x62, 0xc3, 0x21, 0xbd,
  0x6c, 0x2f, 0xc3, 0xbe, 0x51, 0xb4, 0x15, 0xbf, 0x6c, 0xba, 0x5c, 0xbe,
  0x6a, 0x79, 0x06, 0xbf, 0x14, 0x9d, 0xf1, 0xbe, 0xbf, 0x00, 0xd8, 0xbc,
  0x71, 0xf1, 0x8a, 0x3d, 0x99, 0x65, 0x3d, 0xbe, 0x18, 0x51, 0x04, 0xbf,
  0x01, 0x10, 0x1c, 0xbe, 0x0a, 0xc7, 0x2a, 0xbf, 0xe9, 0x25, 0x54, 0xbe,
  0xbc, 0x13, 0x09, 0x3d, 0xab, 0x2b, 0x81, 0xbe, 0x7f, 0x07, 0x9d, 0xbe,
  0x51, 0x31, 0x8f, 0xbd, 0xba, 0xee, 0x06, 0xbe, 0xc1, 0x74, 0xd3, 0xbe,
  0x79, 0x56, 0xa5, 0xbe, 0x78, 0xff, 0xf0, 0xbe, 0xd8, 0x15, 0xc8, 0xbe,
  0x1d, 0xeb, 0x4b, 0xbb, 0x2f, 0x3f, 0xd7, 0xba, 0x94, 0xf1, 0xbc, 0x3b,
  0xbe, 0x8a, 0xb4, 0xbc, 0xad, 0x9e, 0x4e, 0xbe, 0x73, 0xd9, 0xa7, 0xbe,
  0x91, 0x5e, 0x16, 0x3f, 0x30, 0x05, 0x9e, 0xbc, 0xd6, 0x6f, 0x90, 0xbd,
  0x71, 0x7d, 0x22, 0x3f, 0x0d, 0xf8, 0x92, 0xbd, 0x5b, 0x02, 0x2f, 0xbd,
  0xfd, 0xff, 0xab, 0xbd, 0x38, 0xd8, 0x3d, 0xbe, 0x6f, 0x4c, 0xa5, 0x3d,
  0x0e, 0x7b, 0x6f, 0x3d, 0x39, 0x3a, 0xc4, 0x3c, 0xa2, 0x4e, 0xf3, 0xbe,
  0x4f, 0xff, 0x82, 0x3d, 0x0c, 0xdb, 0x7c, 0xbc, 0xf0, 0xc4, 0x41, 0xbe,
  0xc4, 0x42, 0xab, 0xbd, 0x9e, 0x83, 0xdc, 0x3e, 0xaa, 0xd4, 0x0f, 0x3d,
  0xe2, 0xc1, 0x2f, 0x3e, 0xdd, 0xf1, 0x00, 0x3f, 0x28, 0x24, 0x66, 0xbe,
  0xae, 0xcd, 0x06, 0x3e, 0x33, 0x0a, 0xfe, 0xbd, 0xa1, 0x15, 0xb3, 0x3d,
  0x78, 0xf0, 0x8c, 0x3d, 0x73, 0x19, 0x01, 0x3d, 0xa1, 0xc7, 0x4b, 0xbc,
  0x7c, 0xbe, 0xd6, 0xbe, 0x73, 0x5a, 0xe7, 0x3b, 0xcf, 0x95, 0xc0, 0x3d,
  0x94, 0x00, 0x72, 0x3d, 0xb6, 0xc9, 0x66, 0xbd, 0x29, 0x12, 0x94, 0x3c,
  0x11, 0xa3, 0xa4, 0x3e, 0x94, 0x31, 0xb0, 0x3d, 0x39, 0x97, 0x83, 0x3e,
  0x44, 0x63, 0x87, 0xbc, 0x67, 0xb0, 0x41, 0xbe, 0xcd, 0xbd, 0x2d, 0x3d,
  0x1e, 0x63, 0x18, 0x3e, 0xcf, 0x01, 0x64, 0x3c, 0x7c, 0xf3, 0xf0, 0x3d,
  0x68, 0xb0, 0x3e, 0x3c, 0x43, 0x83, 0x8e, 0x3b, 0x8a, 0xf8, 0x33, 0xbe,
  0x9b, 0x06, 0x8d, 0x3c, 0xec, 0x80, 0xcb, 0x3d, 0x8a, 0x86, 0x14, 0x3b,
  0xe1, 0x1d, 0x19, 0x3d, 0x9c, 0x9a, 0x03, 0x3e, 0xa4, 0x45, 0x18, 0xbe,
  0xbc, 0x39, 0xe6, 0xbd, 0xd5, 0x6d, 0x42, 0xbe, 0x35, 0x9f, 0x7f, 0x3d,
  0x19, 0x4c, 0x5d, 0xbe, 0x48, 0x31, 0xd2, 0xbc, 0x07, 0xe3, 0x6f, 0xbe,
  0x4e, 0xcd, 0xbc, 0xbc, 0x6b, 0x43, 0x70, 0xbd, 0x1d, 0xc2, 0x44, 0xbe,
  0x75, 0x37, 0xae, 0xbd, 0xee, 0xc3, 0x04, 0x3e, 0x2e, 0xa7, 0x4b, 0x3d,
  0x74, 0x30, 0x15, 0x3d, 0x19, 0x11, 0x46, 0xbe, 0xc9, 0x69, 0xe3, 0x3b,
  0x6b, 0x7b, 0xe7, 0xbd, 0x27, 0x44, 0xf8, 0xbd, 0x2d, 0x41, 0x8b, 0x3d,
  0x10, 0x9c, 0x30, 0xbd, 0x01, 0x76, 0x02, 0x3d, 0x97, 0xdc, 0x8c, 0x3d,
  0x0b, 0x2d, 0x4d, 0xbe, 0xbe, 0xa7, 0xdc, 0x3d, 0x64, 0xe0, 0x4b, 0xbe,
  0xe1, 0x78, 0x98, 0xbc, 0xc5, 0x98, 0x86, 0xbe, 0x1c, 0x4c, 0x1a, 0x3e,
  0xd6, 0xc7, 0x05, 0xbe, 0x75, 0x28, 0xb3, 0x3d, 0xc1, 0xfe, 0x12, 0xbe,
  0x12, 0xfe, 0x8a, 0xbd, 0xd3, 0x7d, 0xba, 0xbd, 0x85, 0x7c, 0x5f, 0xbe,
  0xa2, 0x44, 0x06, 0xbe, 0x28, 0xc4, 0xe2, 0x3d, 0x37, 0x65, 0x12, 0xbe,
  0xe3, 0x24, 0x0d, 0xbe, 0xa3, 0x1d, 0x3c, 0xbe, 0x5a, 0xbf, 0x9d, 0xbc,
  0x28, 0x00, 0xb6, 0xbd, 0xac, 0x09, 0x07, 0x3c, 0x73, 0x7e, 0x21, 0x3d,
  0xe2, 0x7e, 0xef, 0x3d, 0x17, 0x20, 0x72, 0xbe, 0x2c, 0x7e, 0xca, 0x3d,
  0x3c, 0x1e, 0xcb, 0x3c, 0xbc, 0xd7, 0x02, 0xbe, 0x3d, 0xd0, 0x46, 0xbe,
  0x33, 0x03, 0x32, 0x3d, 0xb5, 0x73, 0x17, 0xbe, 0x7c, 0xf3, 0xad, 0xbd,
  0xf2, 0x30, 0x3b, 0xbe, 0x04, 0x2a, 0x19, 0xbe, 0x92, 0xc9, 0x59, 0xbd,
  0x43, 0xf9, 0x03, 0xbe, 0x94, 0x29, 0x2d, 0xbe, 0x0c, 0x7d, 0x2a, 0xbd,
  0x35, 0x89, 0x28, 0xbe, 0x64, 0x21, 0x0c, 0xbe, 0x7e, 0xd1, 0xd7, 0x3d,
  0xe2, 0x7c, 0x0e, 0xbe, 0x79, 0x1d, 0xa3, 0x3d, 0x55, 0x11, 0xe6, 0xbd,
  0x20, 0xe2, 0x83, 0x3d, 0xdf, 0x93, 0xf1, 0x3d, 0x84, 0x20, 0x15, 0x3e,
  0xdd, 0x15, 0x53, 0xbe, 0x99, 0x96, 0x0a, 0x3e, 0xd0, 0x84, 0x13, 0xbe,
  0x49, 0x30, 0x76, 0xbe, 0x12, 0xa5, 0x2c, 0xbe, 0x92, 0xa0, 0x99, 0xbe,
  0x94, 0x7e, 0xe9, 0x3d, 0x84, 0x13, 0x46, 0xbe, 0x2a, 0xc6, 0x0f, 0xbd,
  0x78, 0x0a, 0xd9, 0xbd, 0x43, 0x67, 0xd4, 0xbd, 0x7f, 0x76, 0xa2, 0x3d,
  0x5f, 0xd6, 0x06, 0xbd, 0xc9, 0xb6, 0x35, 0xbe, 0x6b, 0xf4, 0xdf, 0xbd,
  0x7d, 0x00, 0xef, 0xbc, 0x9a, 0x75, 0x3a, 0xbd, 0x04, 0x10, 0xf0, 0xbc,
  0x25, 0x87, 0x13, 0xbe, 0xa7, 0xb6, 0x14, 0xbe, 0xdb, 0x0c, 0x8a, 0xbc,
  0xde, 0xe3, 0xc2, 0xbd, 0x02, 0xc0, 0x13, 0x3e, 0x1b, 0x51, 0x6e, 0xbe,
  0x02, 0x88, 0x11, 0x3e, 0xdf, 0xeb, 0xcb, 0xbc, 0x6b, 0x09, 0x84, 0xbe,
  0x56, 0x75, 0x57, 0xbe, 0x25, 0xc0, 0x53, 0xbd, 0x9d, 0x6d, 0xb9, 0xbd,
  0x8f, 0xfb, 0xed, 0x3d, 0xa5, 0x1b, 0x1f, 0xbe, 0xf2, 0x7f, 0x9d, 0x3c,
  0x94, 0xc1, 0x51, 0xbe, 0xdf, 0x94, 0x87, 0xbd, 0xb8, 0xd6, 0x47, 0xbe,
  0xb7, 0x39, 0xff, 0xbd, 0x4e, 0x5c, 0x59, 0xbe, 0x47, 0x73, 0x8a, 0x3d,
  0xd8, 0x1e, 0x87, 0x3e, 0x1a, 0x59, 0x8b, 0xbd, 0x12, 0x6e, 0x89, 0xbd,
  0xfd, 0x14, 0x3c, 0xbd, 0xcf, 0x8a, 0x20, 0x3e, 0x3c, 0x1d, 0x8a, 0xbc,
  0x4a, 0x2b, 0x50, 0x3e, 0x04, 0xa7, 0x05, 0x3e, 0x1a, 0xae, 0x65, 0xbe,
  0xac, 0xb4, 0xf8, 0xbd, 0xc1, 0x79, 0x8b, 0xbd, 0xd3, 0x20, 0x70, 0x3e,
  0xc5, 0x50, 0xe1, 0x3d, 0x66, 0x8c, 0x90, 0x3b, 0x61, 0xcc, 0x57, 0xbd,
  0xe1, 0xbc, 0x9b, 0xbe, 0xc9, 0x07, 0x5c, 0x3d, 0xb5, 0xa9, 0xb0, 0xbd,
  0xfb, 0x33, 0x25, 0x3e, 0xd3, 0x1b, 0xb9, 0x3d, 0x28, 0xb4, 0x18, 0x3f,
  0xce, 0x2d, 0x85, 0x3d, 0x6c, 0xc3, 0x24, 0x3e, 0x4a, 0xd4, 0x83, 0xbe,
  0x9e, 0x15, 0xf8, 0x3d, 0x9a, 0x6e, 0x83, 0xbd, 0xfb, 0x84, 0x9b, 0xbd,
  0xe4, 0xdc, 0xb4, 0x3d, 0x84, 0xa4, 0xfd, 0x3b, 0x72, 0x28, 0xbd, 0xbd,
  0x7f, 0x2e, 0x89, 0xbc, 0x6d, 0xef, 0x23, 0xbd, 0xdf, 0xd6, 0x4d, 0xbe,
  0xf9, 0xf0, 0xc3, 0xbd, 0x13, 0xcd, 0x54, 0x3e, 0x52, 0xb3, 0x85, 0xbe,
  0xde, 0x1a, 0x71, 0xbe, 0xfa, 0xb6, 0x04, 0x3c, 0x9c, 0x35, 0x29, 0x3b,
  0x42, 0x3e, 0x82, 0xbe, 0xd1, 0xe8, 0xdf, 0x3d, 0x5d, 0x0c, 0x8b, 0xbd,
  0x5c, 0x6c, 0x83, 0xba, 0x75, 0x51, 0xef, 0xbd, 0x9d, 0xc6, 0x21, 0xbe,
  0x0c, 0xd9, 0xc4, 0xbe, 0x1b, 0xf0, 0x50, 0xbc, 0x62, 0xa2, 0x0d, 0x3d,
  0x0e, 0x34, 0xaf, 0xbe, 0x8e, 0xe3, 0x0b, 0xbf, 0x4b, 0x09, 0xa5, 0x3d,
  0x89, 0x7c, 0x5b, 0xbe, 0x21, 0x8e, 0x38, 0x3d, 0x85, 0x8a, 0x01, 0xbd,
  0x97, 0x93, 0x6c, 0xbe, 0x18, 0x4d, 0x31, 0xbe, 0x5a, 0x50, 0x11, 0x3b,
  0x39, 0x62, 0xbf, 0xbd, 0x5f, 0x38, 0xc1, 0xbe, 0x5d, 0x28, 0xee, 0xbd,
  0xb1, 0xbc, 0xff, 0xbe, 0x1e, 0xed, 0xc2, 0xbe, 0xc5, 0x28, 0x4a, 0xbd,
  0xbc, 0x79, 0x27, 0x3e, 0x98, 0x86, 0x39, 0xbe, 0xa4, 0xe6, 0xa2, 0xbd,
  0x2e, 0xbf, 0xb0, 0xbc, 0xd8, 0xf3, 0x7b, 0xbe, 0x93, 0xcf, 0xaa, 0x3c,
  0x98, 0x8a, 0x01, 0xbe, 0x22, 0x11, 0x1e, 0xbe, 0xf4, 0x26, 0x9f, 0x3e,
  0xbe, 0x6a, 0x9f, 0xbc, 0x24, 0x55, 0x7a, 0xbd, 0xbb, 0xaa, 0xf7, 0xbd,
  0x02, 0xf3, 0x05, 0xbe, 0x98, 0x1e, 0x88, 0xbd, 0x9f, 0xa3, 0x31, 0xbe,
  0xe6, 0xd5, 0x51, 0xbd, 0x94, 0x5d, 0x0d, 0xbe, 0xb9, 0x8f, 0x38, 0xbe,
  0x49, 0x35, 0xfa, 0xbc, 0x56, 0x5b, 0x80, 0xbe, 0x8e, 0x95, 0x2a, 0xbe,
  0x08, 0x21, 0x16, 0x3f, 0xa8, 0x36, 0x17, 0xbc, 0xce, 0x7e, 0xf1, 0xbc,
  0x1b, 0xa8, 0xce, 0x3e, 0x42, 0xf0, 0x29, 0xbe, 0x16, 0x07, 0xc2, 0xbe,
  0xba, 0x89, 0xce, 0xbd, 0x52, 0xcc, 0x9b, 0x3d, 0x56, 0xd6, 0xc6, 0x3d,
  0x5f, 0x4a, 0x2c, 0xbd, 0x71, 0x9c, 0x77, 0xbd, 0x21, 0x7a, 0x8e, 0xbe,
  0x45, 0xfe, 0x81, 0x3d, 0x1a, 0x79, 0x19, 0x3e, 0x40, 0x28, 0x3e, 0x3e,
  0x38, 0x2d, 0x28, 0xbd, 0x8d, 0x79, 0x9b, 0xbd, 0x4c, 0x2d, 0x04, 0x3e,
  0x63, 0x1c, 0x9a, 0xbd, 0x4e, 0x92, 0x86, 0x3e, 0x5b, 0x99, 0x6d, 0xbe,
  0xe5, 0x13, 0x26, 0xbe, 0x77, 0xb6, 0x13, 0x3e, 0xda, 0xf3, 0xbf, 0x3c,
  0xe7, 0x6d, 0x97, 0x3d, 0x8c, 0x5f, 0xe1, 0x3d, 0x13, 0xc8, 0x26, 0x3d,
  0x71, 0x19, 0x90, 0x3c, 0x01, 0x0f, 0x83, 0x3e, 0x28, 0xfb, 0xf5, 0x3c,
  0x64, 0xa6, 0x14, 0xbe, 0x44, 0xd7, 0x27, 0xbe, 0xa3, 0x2f, 0x8e, 0x3e,
  0x07, 0x91, 0xde, 0x3e, 0x11, 0xc3, 0x14, 0x3e, 0x46, 0x48, 0x66, 0x3e,
  0xb5, 0xe7, 0xb6, 0xbe, 0xc0, 0x0c, 0x4e, 0xbe, 0xe1, 0xa6, 0x1d, 0xbd,
  0xc1, 0x91, 0x91, 0x3e, 0xb8, 0xa6, 0xbb, 0xba, 0x34, 0x09, 0x29, 0x3e,
  0xe1, 0x2b, 0x36, 0xbe, 0x0d, 0x25, 0xc0, 0xba, 0xd0, 0xb1, 0xef, 0x3d,
  0x61, 0x0f, 0xaf, 0x3d, 0x08, 0xa6, 0xbc, 0x3e, 0xab, 0x72, 0x21, 0x3d,
  0xbd, 0x45, 0x47, 0x3e, 0xf3, 0xef, 0x83, 0x3e, 0x5e, 0x61, 0x82, 0x3e,
  0x8b, 0xec, 0x8a, 0xbe, 0x7b, 0x9f, 0x2d, 0xbd, 0x06, 0x94, 0x3b, 0x3e,
  0x6e, 0x07, 0x52, 0x3c, 0xe8, 0x7a, 0xe5, 0xbb, 0x65, 0xe6, 0x1b, 0xbd,
  0xb5, 0xfa, 0x3e, 0xbe, 0x87, 0x4f, 0xa1, 0xbd, 0x2b, 0x83, 0xae, 0xbd,
  0xe4, 0x60, 0xc2, 0xbd, 0xd7, 0xde, 0xce, 0xbd, 0x05, 0x03, 0xb1, 0x3e,
  0xda, 0xe5, 0x65, 0xbe, 0xa9, 0xd2, 0x98, 0xbd, 0x0c, 0x17, 0xd6, 0xbb,
  0x35, 0xd2, 0x1b, 0x3e, 0xfe, 0x00, 0x7a, 0xbc, 0x96, 0x22, 0x9f, 0x3d,
  0xa3, 0x90, 0xe9, 0x3d, 0x66, 0x47, 0x23, 0x3c, 0xab, 0x06, 0x92, 0x3d,
  0xb7, 0x18, 0xab, 0xbe, 0xb0, 0x59, 0xec, 0xbe, 0x18, 0x10, 0x42, 0xbd,
  0x26, 0x73, 0xb2, 0xbc, 0xbd, 0x8b, 0xbf, 0xbe, 0x6c, 0x88, 0x8e, 0xbe,
  0xaa, 0xb5, 0x2d, 0x3e, 0xb2, 0x01, 0x89, 0xbe, 0xb4, 0xec, 0xe1, 0xbd,
  0xd7, 0xb5, 0xad, 0x3d, 0x00, 0xd2, 0x56, 0xbe, 0x65, 0x91, 0x8a, 0xbe,
  0xb7, 0xba, 0xa5, 0x3d, 0x07, 0x33, 0xfe, 0x3c, 0x9b, 0x5b, 0x6a, 0xbd,
  0xa2, 0xbc, 0x7c, 0xbd, 0xc0, 0x8a, 0x92, 0xbe, 0x74, 0xb4, 0xc2, 0xbe,
  0x92, 0xe5, 0x28, 0xbd, 0xef, 0xf4, 0xf6, 0x3c, 0x8f, 0xc6, 0x90, 0xbd,
  0x5f, 0x05, 0x09, 0xbe, 0xc3, 0x32, 0x10, 0x3d, 0x48, 0xaa, 0x42, 0xbe,
  0x86, 0xe6, 0xf2, 0x3c, 0x78, 0x5a, 0x4e, 0xbd, 0x29, 0x02, 0x5e, 0xbb,
  0x39, 0x7d, 0x26, 0xbd, 0x8b, 0x5c, 0x44, 0xbd, 0x1f, 0xa3, 0x93, 0x3e,
  0xac, 0x2c, 0xa4, 0xbd, 0x63, 0x44, 0x48, 0xbe, 0x75, 0xee, 0x6b, 0xbe,
  0x66, 0xf4, 0x0d, 0xbe, 0x07, 0x54, 0xdf, 0xbd, 0xd4, 0x54, 0x78, 0xbd,
  0xa0, 0x3e, 0x93, 0xbe, 0xf3, 0x88, 0xbe, 0xb9, 0x54, 0xb5, 0x89, 0xbc,
  0x56, 0x87, 0x45, 0xbe, 0x0a, 0x04, 0x9c, 0x3c, 0x22, 0x68, 0x99, 0xbd,
  0x19, 0x4c, 0x1d, 0x3e, 0x01, 0x33, 0x0b, 0xbe, 0xc5, 0x09, 0xd3, 0x3d,
  0x83, 0x84, 0x3b, 0x3d, 0x7d, 0x2c, 0x20, 0xbe, 0xb1, 0xbd, 0x06, 0xbe,
  0x52, 0xf9, 0x14, 0x3e, 0xb2, 0xff, 0x26, 0xbe, 0x2e, 0x54, 0x1d, 0xbd,
  0x63, 0x27, 0xa5, 0xbd, 0xe3, 0x89, 0xe8, 0xbc, 0x85, 0xbf, 0x3c, 0x3c,
  0xfc, 0x87, 0x33, 0x3e, 0xb7, 0xd8, 0x43, 0xba, 0xf5, 0xfb, 0x1b, 0x3e,
  0xf6, 0xd0, 0x30, 0x3e, 0xbe, 0xf6, 0x24, 0x3d, 0x93, 0x18, 0x22, 0xbe,
  0xe2, 0xd3, 0x5a, 0xbd, 0x2a, 0x4d, 0x6d, 0x3e, 0x8a, 0x28, 0x2b, 0xbe,
  0x0b, 0x7c, 0x9b, 0xbd, 0xca, 0xe4, 0xfa, 0xbd, 0x09, 0x3a, 0x61, 0xbe,
  0x1d, 0x5c, 0x0f, 0xbe, 0x67, 0x70, 0x2c, 0xbc, 0xd8, 0x57, 0x05, 0x3c,
  0x35, 0x33, 0x1a, 0x3d, 0x99, 0x9e, 0x13, 0xbd, 0xbc, 0x12, 0x82, 0xbe,
  0x89, 0x6e, 0x19, 0x3e, 0x81, 0xc1, 0x38, 0x3d, 0x14, 0x4f, 0x21, 0xbe,
  0x56, 0xd2, 0x8e, 0xbd, 0x32, 0x5e, 0x65, 0xbe, 0x89, 0xbd, 0xbc, 0x3c,
  0x94, 0x47, 0xb8, 0xbd, 0xa2, 0x22, 0xed, 0x3d, 0x61, 0x09, 0x8d, 0xbe,
  0x55, 0x27, 0x9d, 0xbd, 0x21, 0x95, 0x88, 0xbe, 0x4f, 0x4e, 0x2a, 0xbe,
  0xa5, 0x07, 0xf1, 0xbd, 0x18, 0xf5, 0x98, 0x3d, 0x81, 0x70, 0x7d, 0x3d,
  0x98, 0x53, 0x7a, 0xbe, 0x81, 0xd3, 0x2f, 0x3e, 0x77, 0x1b, 0x70, 0x3d,
  0xf1, 0x6b, 0x5f, 0x3c, 0xbd, 0x9a, 0xca, 0xbd, 0x46, 0x7e, 0xd5, 0x3d,
  0x9d, 0x6a, 0xf8, 0x3c, 0x56, 0xa6, 0x4d, 0x3d, 0xd0, 0x2d, 0x3c, 0x3d,
  0xa5, 0x4c, 0xae, 0x3c, 0x92, 0x6b, 0x41, 0xbe, 0x89, 0xe0, 0xe9, 0xbd,
  0x3c, 0xa3, 0x4e, 0xbe, 0x4e, 0xdf, 0x4a, 0xbe, 0x59, 0xc1, 0x1b, 0xbe,
  0x0b, 0x5e, 0xa3, 0xbd, 0xaf, 0x74, 0xcc, 0x3d, 0xa4, 0x98, 0x28, 0x3e,
  0x7e, 0xd0, 0xd5, 0x3c, 0xa2, 0x0f, 0x49, 0xbd, 0xd3, 0xf1, 0x18, 0xbe,
  0x58, 0xa6, 0x2d, 0xbe, 0x5a, 0x7c, 0x65, 0x3b, 0xb2, 0x27, 0x67, 0xbe,
  0x8b, 0x32, 0xe7, 0xbc, 0x69, 0x56, 0x46, 0xbc, 0x6e, 0x3e, 0xad, 0x3d,
  0xd1, 0x42, 0x8d, 0xbe, 0xaa, 0x2d, 0xc2, 0x3d, 0xe8, 0x35, 0x78, 0xbd,
  0x6a, 0x75, 0xac, 0x3d, 0xcf, 0x8d, 0x73, 0xbe, 0x40, 0xf1, 0x80, 0x3c,
  0x63, 0x69, 0xa1, 0xbd, 0x31, 0x39, 0x94, 0x3d, 0x60, 0x6f, 0xa7, 0xbd,
  0x84, 0x1e, 0x58, 0xbe, 0x4e, 0x57, 0xbc, 0xbd, 0x16, 0x53, 0x22, 0xbd,
  0x7c, 0xe2, 0x2a, 0xbd, 0x5d, 0xca, 0x4d, 0xbe, 0xc3, 0xc4, 0x2d, 0xbd,
  0x0f, 0x74, 0x76, 0xbe, 0x3d, 0x43, 0x84, 0xbe, 0x4d, 0x72, 0x0f, 0x3e,
  0xf8, 0x99, 0xa6, 0xbd, 0x03, 0x7c, 0x0f, 0x3c, 0x9f, 0x29, 0x34, 0xbe,
  0x2d, 0xad, 0x80, 0xbd, 0xcf, 0xc8, 0x58, 0xbe, 0xb5, 0xf0, 0x31, 0x3e,
  0xcb, 0xc0, 0x4c, 0x3e, 0x37, 0xfe, 0x31, 0x3e, 0xe2, 0x63, 0x11, 0xbe,
  0x88, 0x7f, 0xad, 0x3d, 0x32, 0x0a, 0x2e, 0xbe, 0xce, 0x5e, 0x34, 0xbe,
  0x6a, 0xc9, 0x4f, 0xbd, 0x0b, 0x3a, 0xf1, 0x3d, 0x04, 0x48, 0x85, 0xbe,
  0x50, 0x7e, 0xc7, 0xbd, 0x49, 0xaf, 0x13, 0x3e, 0xa0, 0x38, 0x1f, 0xbe,
  0xad, 0xa3, 0xaf, 0x3d, 0x75, 0x6c, 0x68, 0xbd, 0xc2, 0x45, 0x1f, 0x3e,
  0xd8, 0xd3, 0x38, 0xbe, 0x58, 0xf3, 0x30, 0xbe, 0xa5, 0xaf, 0xe5, 0xbd,
  0xdf, 0x2f, 0xbc, 0x3d, 0x42, 0xdd, 0x75, 0x3c, 0x34, 0x96, 0x2f, 0xbe,
  0xac, 0xa8, 0x88, 0xbe, 0xbb, 0xb1, 0x35, 0xbe, 0xa1, 0x23, 0x15, 0xbc,
  0x04, 0x11, 0x2f, 0xbe, 0xc6, 0xf2, 0x72, 0xbe, 0x3f, 0xfe, 0xba, 0xbd,
  0x08, 0x70, 0xb0, 0xbd, 0xb6, 0xe5, 0xac, 0xbc, 0xb3, 0xb7, 0x19, 0xbe,
  0xf2, 0x64, 0xc5, 0xbc, 0xea, 0xfa, 0xa4, 0xbd, 0x2c, 0x23, 0x6d, 0xbe,
  0x8a, 0xa5, 0xdc, 0xbd, 0x08, 0x24, 0x0f, 0xbe, 0xb8, 0x85, 0xb3, 0x3c,
  0x33, 0xf4, 0x26, 0x3e, 0xe4, 0xb9, 0x0e, 0xbe, 0xea, 0xa1, 0x59, 0xbe,
  0x6c, 0x37, 0x3c, 0xbe, 0x5c, 0x5b, 0xc0, 0xbc, 0x9d, 0xd9, 0xf0, 0xbd,
  0x4b, 0x50, 0x24, 0xbe, 0xb6, 0xbd, 0x09, 0xbf, 0x16, 0xc2, 0x93, 0xbe,
  0xee, 0x2b, 0x39, 0xbf, 0xc3, 0x8c, 0x08, 0x3e, 0x51, 0xd5, 0x07, 0xbe,
  0xd6, 0xa8, 0x34, 0xbf, 0x51, 0xe6, 0xfb, 0x3c, 0x8f, 0x4c, 0x2b, 0xbf,
  0x0e, 0x0f, 0xea, 0x3c, 0x4b, 0x51, 0x0e, 0xbe, 0xe9, 0x32, 0x7a, 0xbf,
  0x62, 0x95, 0x13, 0xbf, 0x66, 0x4f, 0xea, 0x3b, 0xc2, 0xef, 0x6f, 0xbe,
  0x2f, 0x74, 0xbd, 0xbe, 0x53, 0xfd, 0xb3, 0x3d, 0x72, 0xfe, 0x68, 0xbe,
  0x59, 0x64, 0x3b, 0xbe, 0x82, 0x1f, 0x9e, 0xbe, 0x15, 0xcf, 0x73, 0xbe,
  0xe4, 0x9f, 0x2a, 0xbe, 0xdf, 0x9c, 0x7c, 0xbe, 0x3b, 0x87, 0xfa, 0xbc,
  0x67, 0xe1, 0x1a, 0xbf, 0x8b, 0x33, 0xb9, 0xbd, 0xbd, 0xaa, 0xb8, 0xbd,
  0xd4, 0x2b, 0x14, 0xbf, 0x7e, 0x1d, 0xd2, 0x3b, 0xe7, 0xb1, 0x8f, 0xbc,
  0xb6, 0x86, 0x5b, 0xbe, 0x1e, 0x20, 0xf7, 0xbe, 0xe3, 0x5c, 0xe3, 0x3d,
  0xe4, 0x1a, 0xc6, 0xbe, 0xea, 0xc0, 0x7e, 0x3c, 0xa7, 0xda, 0x12, 0xbf,
  0x8d, 0xa7, 0xa8, 0x3c, 0xd2, 0x87, 0xf5, 0xbe, 0xfa, 0x09, 0xd2, 0xbe,
  0x42, 0xfa, 0xc9, 0xbc, 0x40, 0xbe, 0x15, 0xbf, 0x3f, 0xb6, 0x04, 0xbe,
  0x89, 0xb4, 0xc7, 0xbe, 0xfe, 0x08, 0xbe, 0xbe, 0x00, 0x4e, 0x81, 0xbe,
  0x25, 0x9b, 0x8c, 0x3c, 0x0a, 0x35, 0xce, 0xbd, 0x9e, 0x9b, 0xaf, 0xbd,
  0xdd, 0xbc, 0x8d, 0x3c, 0xb4, 0x3e, 0xab, 0xbe, 0xad, 0xc3, 0x66, 0xbd,
  0x59, 0x75, 0xb0, 0xbe, 0x3a, 0x18, 0x95, 0x3d, 0x76, 0x34, 0xbb, 0xbe,
  0x5c, 0x0e, 0x13, 0xbe, 0x92, 0x82, 0xc2, 0xbd, 0x5a, 0x4e, 0x9d, 0xbe,
  0xc8, 0xff, 0xd6, 0x3d, 0x4a, 0x06, 0xea, 0xbd, 0xad, 0xe5, 0x0e, 0xbf,
  0xe1, 0x86, 0xaf, 0xbe, 0x04, 0x1c, 0x62, 0xbe, 0x1e, 0x62, 0x3b, 0xbe,
  0x42, 0x6d, 0x07, 0xbf, 0x73, 0xd5, 0x38, 0x3e, 0xe4, 0x5d, 0x2d, 0xbd,
  0xbe, 0xa1, 0xae, 0xbd, 0xcd, 0x4c, 0x04, 0x3c, 0xb7, 0xce, 0x7a, 0x3e,
  0x35, 0xd1, 0x88, 0xbe, 0xcc, 0x6d, 0xa0, 0x3d, 0x7e, 0xf6, 0xae, 0x3e,
  0xdc, 0x50, 0xa7, 0xbe, 0xee, 0xe1, 0x02, 0x3e, 0x10, 0xd7, 0x84, 0xbb,
  0x2d, 0x15, 0xb2, 0xbe, 0xea, 0x99, 0x21, 0x3c, 0x30, 0x1d, 0xcf, 0x3d,
  0x63, 0x15, 0xb6, 0xbd, 0xd5, 0x26, 0x08, 0xbf, 0xae, 0xcc, 0xeb, 0x3d,
  0x0a, 0xd2, 0x0b, 0x3c, 0x77, 0xca, 0x5b, 0x3d, 0xac, 0x4d, 0xf6, 0xbc,
  0x65, 0x70, 0x8a, 0x3e, 0x40, 0x39, 0xae, 0x3d, 0xab, 0x94, 0x44, 0x3e,
  0x28, 0xcf, 0x9e, 0x3e, 0x7c, 0x61, 0x96, 0xbe, 0x3c, 0x15, 0x33, 0x3e,
  0xa3, 0x91, 0x0d, 0xbd, 0x41, 0x50, 0x9b, 0x3e, 0xd2, 0x8f, 0xea, 0x3d,
  0xb9, 0xf2, 0x46, 0x3e, 0xa1, 0xc2, 0x5f, 0x3d, 0x1b, 0x07, 0xea, 0xbe,
  0xb7, 0x56, 0x37, 0xbd, 0x44, 0x10, 0xc5, 0x3c, 0x60, 0x76, 0x5a, 0x3d,
  0xa6, 0x20, 0x8c, 0x3b, 0x6e, 0x7d, 0xf4, 0x3d, 0x5f, 0x92, 0x91, 0x3e,
  0x1d, 0x37, 0xa3, 0x3d, 0xa0, 0xda, 0xba, 0x3e, 0x4c, 0x6e, 0x28, 0xbe,
  0xbd, 0x37, 0x31, 0xbe, 0xac, 0xe8, 0x19, 0x3e, 0x54, 0x3a, 0xd5, 0x3d,
  0x44, 0x1d, 0x84, 0x3d, 0x8f, 0xd2, 0xf9, 0x3c, 0xe4, 0xb0, 0xca, 0x3c,
  0xb2, 0xb8, 0x69, 0x3e, 0x90, 0x01, 0x08, 0xbe, 0x15, 0x85, 0x29, 0xbe,
  0x2f, 0x07, 0x0c, 0x3e, 0x17, 0xc0, 0xd4, 0x3d, 0xd9, 0xfe, 0x28, 0xbe,
  0xe8, 0xaa, 0x60, 0xbe, 0x74, 0x18, 0xd9, 0x3d, 0xfe, 0xbf, 0xbf, 0xbd,
  0x42, 0x01, 0x80, 0x3e, 0x9d, 0x47, 0x16, 0xbe, 0x73, 0x61, 0x66, 0x3e,
  0xea, 0x34, 0x02, 0xbd, 0x1b, 0x63, 0x26, 0x3c, 0x0b, 0xe1, 0x98, 0xbe,
  0x03, 0x8f, 0x12, 0xbd, 0xcc, 0xe1, 0x2d, 0xbd, 0x1d, 0xb8, 0x6d, 0xbe,
  0xec, 0x2d, 0x39, 0x3e, 0x3a, 0x5a, 0xbf, 0xbc, 0x6e, 0xdd, 0x21, 0xbd,
  0x34, 0x08, 0x5f, 0xbe, 0xab, 0xf1, 0x70, 0xbe, 0x14, 0xd7, 0xa1, 0x3d,
  0xc5, 0xcd, 0xd5, 0x3e, 0xa2, 0x2a, 0x0b, 0xbc, 0x22, 0x7c, 0xee, 0xbe,
  0x5e, 0x56, 0x90, 0x3e, 0x46, 0x49, 0x0e, 0xbe, 0xaa, 0x70, 0x34, 0x3e,
  0x8e, 0xb9, 0x9a, 0xbe, 0xf6, 0x9d, 0x92, 0xbd, 0xae, 0xcd, 0x2c, 0x3f,
  0x1e, 0x02, 0x2b, 0xbe, 0x3a, 0x5c, 0xd6, 0x3e, 0xb2, 0xe9, 0x07, 0xbe,
  0xbd, 0x00, 0x93, 0x3e, 0xea, 0xa2, 0x43, 0x3e, 0xb8, 0x5a, 0x87, 0xbe,
  0xd2, 0xc7, 0x3e, 0x3d, 0x90, 0x35, 0xb0, 0x3d, 0x06, 0xe3, 0x85, 0xbe,
  0x6a, 0xdb, 0xb9, 0xbd, 0x52, 0xac, 0x5f, 0x3e, 0x97, 0x89, 0x2d, 0x3e,
  0x35, 0x97, 0xa8, 0x3e, 0x2d, 0x8b, 0xa6, 0xbe, 0x2d, 0x16, 0x94, 0xbd,
  0xcc, 0xba, 0x4f, 0x3f, 0xad, 0x9c, 0x33, 0x3e, 0x60, 0xf7, 0x1e, 0x3e,
  0x8a, 0x9d, 0x27, 0x3e, 0xfe, 0x09, 0x98, 0x3e, 0xa4, 0xaa, 0x87, 0xbe,
  0xdc, 0xc1, 0x85, 0x3d, 0xbd, 0xa5, 0xcc, 0x3e, 0xb2, 0xf2, 0x0b, 0xbe,
  0xeb, 0x3b, 0x5f, 0xbd, 0xe7, 0x71, 0x69, 0xbe, 0x89, 0xa1, 0x43, 0x3e,
  0xa3, 0x2e, 0xab, 0x3d, 0x3b, 0x3c, 0xf7, 0x3e, 0xce, 0x8c, 0xb5, 0xbe,
  0x3d, 0x62, 0x14, 0xbd, 0xb8, 0x4f, 0x22, 0x3f, 0x60, 0xec, 0x08, 0xbe,
  0xef, 0xef, 0x44, 0x3e, 0x7f, 0xdc, 0x06, 0x3e, 0x24, 0x85, 0x47, 0x3e,
  0x66, 0xc9, 0xbb, 0xbe, 0x8c, 0x60, 0x04, 0xbe, 0xa0, 0x5f, 0xec, 0x3e,
  0xe2, 0x06, 0x80, 0xbe, 0xe1, 0x5b, 0x5b, 0x3d, 0xc3, 0x28, 0x8c, 0xbe,
  0xc2, 0x74, 0x10, 0x3e, 0x90, 0x7a, 0x65, 0x3e, 0xf7, 0x35, 0x78, 0x3c,
  0x0b, 0x15, 0xca, 0xbe, 0xf4, 0x2b, 0xd8, 0xbc, 0xe7, 0x48, 0x8c, 0x3e,
  0x50, 0x04, 0x1b, 0xbf, 0x4d, 0xad, 0xde, 0x3d, 0x28, 0xf5, 0x69, 0x3e,
  0xc6, 0x7d, 0xc5, 0x3d, 0xe2, 0x60, 0xbc, 0xbe, 0xcb, 0x35, 0x45, 0xbe,
  0x61, 0x1b, 0xa8, 0x3c, 0xd7, 0x10, 0x8d, 0xbe, 0x70, 0x0a, 0x31, 0x3e,
  0xf0, 0x2b, 0x13, 0xbf, 0x81, 0xd6, 0x46, 0x3e, 0x46, 0xb2, 0x4f, 0xbe,
  0xe3, 0x33, 0x9a, 0x3d, 0xa8, 0x6c, 0x26, 0xbf, 0x2b, 0x19, 0xd2, 0xbd,
  0x9f, 0x95, 0x01, 0x3f, 0x07, 0xee, 0x9f, 0xbe, 0x9a, 0xe6, 0xd6, 0x3d,
  0x01, 0x85, 0x23, 0x3e, 0xff, 0x83, 0x81, 0x3a, 0x51, 0xa4, 0x0f, 0xbf,
  0x8f, 0x33, 0xf7, 0xbd, 0x3f, 0x0c, 0x8e, 0xbd, 0x33, 0x89, 0x8d, 0xbe,
  0x33, 0xf7, 0xf3, 0xbd, 0x02, 0xd9, 0x70, 0xbd, 0x3e, 0xf5, 0x29, 0x3e,
  0x34, 0xca, 0xa2, 0xbe, 0x7c, 0x04, 0x68, 0x3d, 0x2b, 0x9d, 0x58, 0xbe,
  0x60, 0x7c, 0x98, 0xbd, 0xfe, 0x36, 0x6f, 0xbd, 0x83, 0xe5, 0xc2, 0x3d,
  0x55, 0x35, 0x91, 0xbd, 0x69, 0x27, 0x9b, 0xbd, 0xe3, 0xb8, 0xa7, 0xbd,
  0x45, 0x3d, 0xe1, 0x3d, 0x50, 0xc2, 0xe8, 0x3d, 0xdf, 0xe8, 0x72, 0xbd,
  0x6d, 0x55, 0x86, 0xbe, 0x49, 0xa7, 0x2a, 0xbe, 0xab, 0x9f, 0x73, 0xbe,
  0xbc, 0xff, 0x2b, 0xbb, 0xfd, 0x88, 0xb0, 0xbd, 0xfd, 0x02, 0x53, 0xbe,
  0xdc, 0xb9, 0x39, 0xbe, 0x0d, 0x6c, 0xa3, 0xbe, 0xe7, 0x78, 0x3b, 0xbe,
  0x43, 0xaf, 0xc7, 0xbd, 0xc1, 0xd6, 0x0b, 0xbe, 0x02, 0x2b, 0x88, 0xbd,
  0xa6, 0x26, 0x9f, 0x3d, 0x7f, 0x25, 0x8b, 0xbd, 0xd1, 0x86, 0xc4, 0x3d,
  0xda, 0x6b, 0x30, 0xbe, 0x44, 0x8c, 0x79, 0xbd, 0xb3, 0x8b, 0xa4, 0xbe,
  0x9d, 0x6e, 0x78, 0xbc, 0x74, 0x9c, 0x26, 0x3d, 0x0f, 0x6b, 0x55, 0xbe,
  0xb8, 0x20, 0x5c, 0xbe, 0x90, 0x75, 0x4d, 0xbe, 0x69, 0xb9, 0x8b, 0xbd,
  0xe1, 0x91, 0x19, 0xbe, 0x54, 0x87, 0x1d, 0xbe, 0xf1, 0x89, 0x3c, 0xbe,
  0xa9, 0x33, 0x22, 0xbe, 0xa2, 0x51, 0x23, 0xbe, 0x80, 0x88, 0x34, 0xbd,
  0x23, 0x30, 0xf6, 0xbd, 0x7f, 0x2f, 0x10, 0xbe, 0x04, 0x4e, 0x90, 0x3d,
  0x78, 0x7c, 0x89, 0xbe, 0x5c, 0xef, 0xa1, 0xbd, 0x45, 0xcb, 0x95, 0xbe,
  0xf4, 0x93, 0x58, 0xbe, 0x42, 0x67, 0x8b, 0x39, 0x8f, 0x2c, 0xf8, 0xbd,
  0xb1, 0xe2, 0xf2, 0xbd, 0x13, 0x4f, 0xd7, 0xbd, 0x3f, 0xfa, 0x7c, 0xbe,
  0xb5, 0xb3, 0x81, 0xbe, 0x95, 0xee, 0x60, 0xbe, 0x92, 0xfd, 0x30, 0xbe,
  0xac, 0xcc, 0x2e, 0x3c, 0x85, 0x24, 0xce, 0x3d, 0xe4, 0xc6, 0x12, 0xbe,
  0x31, 0xfe, 0xbe, 0x3d, 0x1d, 0xf1, 0xe8, 0xbd, 0x35, 0x77, 0x5b, 0xbd,
  0x1a, 0x96, 0x5c, 0xbe, 0x95, 0x7f, 0x61, 0xbd, 0xf9, 0x99, 0x42, 0xbe,
  0x9e, 0x49, 0xb5, 0xbb, 0x33, 0x8d, 0x13, 0xbe, 0x44, 0xc3, 0x27, 0x3c,
  0xd0, 0x59, 0xa9, 0xbd, 0x8c, 0xf3, 0x9c, 0xbe, 0x97, 0x70, 0x2f, 0x3d,
  0xf3, 0x22, 0xd4, 0xbd, 0x0a, 0x17, 0x15, 0xbe, 0x46, 0xe7, 0xa5, 0xbd,
  0xb5, 0x9c, 0x15, 0xbe, 0x8d, 0x52, 0xa5, 0xbd, 0xbd, 0x7a, 0xc3, 0xbe,
  0xe4, 0xa7, 0xae, 0x3d, 0x1f, 0x0d, 0x12, 0xbe, 0x7c, 0x21, 0xb0, 0x3d,
  0x25, 0x24, 0x82, 0xbe, 0xb4, 0xb8, 0xd8, 0xbd, 0x9f, 0x9a, 0x79, 0xbd,
  0x57, 0xfe, 0x4d, 0xbd, 0x36, 0x5a, 0x96, 0xbe, 0xd0, 0x65, 0xb3, 0x3d,
  0x0a, 0x04, 0x4c, 0xbd, 0x97, 0x5a, 0xc0, 0xbc, 0x05, 0x9d, 0x36, 0x3d,
  0x95, 0x88, 0xc4, 0xbd, 0x1e, 0x38, 0x4e, 0xbe, 0x84, 0x5e, 0x5c, 0xbe,
  0xf6, 0x57, 0x06, 0xbe, 0xe4, 0x8e, 0xf8, 0x3d, 0x48, 0xfe, 0x98, 0xbd,
  0x32, 0x45, 0x7c, 0x3d, 0xc0, 0x25, 0x08, 0xbd, 0x19, 0x1f, 0x3a, 0x3d,
  0xea, 0xb4, 0x1a, 0xbe, 0x48, 0x50, 0xce, 0xbc, 0x6e, 0xdd, 0xb6, 0xbe,
  0xa7, 0x80, 0xe2, 0x3d, 0x7d, 0x42, 0x67, 0xbe, 0x61, 0x77, 0x2c, 0x3d,
  0x97, 0x82, 0xab, 0x3d, 0x93, 0xd0, 0x04, 0xbe, 0x4a, 0xed, 0xa7, 0xbd,
  0x37, 0xe3, 0x0d, 0xbe, 0x14, 0xc6, 0xba, 0xbc, 0xd1, 0xea, 0x60, 0xbd,
  0x2d, 0xbe, 0x73, 0xbe, 0xd6, 0xab, 0x34, 0xbe, 0x8e, 0x2b, 0x13, 0xbd,
  0x96, 0x1d, 0x13, 0xbe, 0xbc, 0xbb, 0x35, 0xbe, 0x80, 0x90, 0x4c, 0xbe,
  0xa3, 0x9a, 0x80, 0xbd, 0xf6, 0x5c, 0x48, 0xbe, 0x2e, 0xe8, 0x32, 0xbd,
  0xd5, 0x70, 0x4c, 0xbe, 0x2f, 0x4f, 0xe7, 0x3d, 0x8c, 0x91, 0x86, 0xbd,
  0xc3, 0xec, 0xa3, 0xbd, 0x18, 0x98, 0x8a, 0xbe, 0xb3, 0x6b, 0x6d, 0x3c,
  0xc6, 0x7d, 0xa7, 0x3d, 0x35, 0x2b, 0x6e, 0xbe, 0x84, 0xff, 0x1a, 0xbd,
  0x08, 0x07, 0xb8, 0xbc, 0xf9, 0xd8, 0x5c, 0xbd, 0x1a, 0x5b, 0xc4, 0xbe,
  0x2d, 0x6f, 0xf6, 0x3e, 0xec, 0xa5, 0x63, 0xbe, 0xfb, 0x42, 0x07, 0x3d,
  0x63, 0x8e, 0x47, 0x3c, 0xb1, 0xb2, 0x02, 0xbe, 0xf9, 0xff, 0x2c, 0x3e,
  0xfa, 0x58, 0xc8, 0x3c, 0x02, 0xc0, 0xc2, 0xbd, 0x8f, 0x38, 0x45, 0x3e,
  0xc7, 0xd5, 0x28, 0xbe, 0x41, 0x45, 0x03, 0x3d, 0x02, 0x4e, 0x96, 0xbd,
  0x4c, 0xaa, 0x35, 0xbc, 0xd3, 0x96, 0xdd, 0x3e, 0xa3, 0x25, 0x51, 0xbc,
  0xa2, 0xf1, 0x65, 0xbe, 0x3f, 0xc4, 0xe0, 0x3e, 0xc2, 0x8f, 0xf6, 0xbd,
  0x3e, 0x8c, 0xce, 0xbc, 0x70, 0x0b, 0x6c, 0xbe, 0x7c, 0x24, 0x3f, 0x3d,
  0xce, 0xf7, 0xd9, 0x3b, 0xe1, 0x81, 0x31, 0x3d, 0x98, 0xec, 0xde, 0xbd,
  0x0f, 0xce, 0x63, 0x3d, 0xe6, 0xd0, 0xd8, 0xbc, 0x3d, 0x5f, 0x62, 0x3c,
  0x11, 0xa8, 0x8d, 0xbe, 0x09, 0x38, 0xb0, 0x3b, 0x44, 0x4d, 0x66, 0x3e,
  0xe9, 0xd1, 0x2e, 0x3c, 0xb1, 0xb6, 0x83, 0xbe, 0x32, 0x19, 0x05, 0x3f,
  0xe5, 0xdd, 0x93, 0xbd, 0x38, 0xd8, 0x47, 0x3d, 0x8c, 0xca, 0x51, 0x3d,
  0x12, 0x7e, 0x70, 0xbe, 0x60, 0xd4, 0x9b, 0xbb, 0x5f, 0x49, 0x6e, 0x3d,
  0x40, 0x06, 0x36, 0xbe, 0xe4, 0x37, 0x93, 0xbe, 0xc3, 0x5b, 0x26, 0xbe,
  0x1f, 0xca, 0x0d, 0xbe, 0xf6, 0x01, 0x04, 0xbd, 0xd6, 0xd0, 0x92, 0x3d,
  0x20, 0x41, 0xa8, 0x3e, 0xc2, 0xbc, 0x94, 0xbe, 0x71, 0x73, 0xfb, 0xbd,
  0x00, 0x02, 0x03, 0x3f, 0xcc, 0xf7, 0x04, 0x3d, 0x95, 0xdd, 0x54, 0xbe,
  0xd0, 0x92, 0x12, 0xbe, 0x87, 0xcd, 0x04, 0x3d, 0x11, 0x24, 0x8c, 0xbb,
  0xcb, 0x85, 0xfd, 0xbd, 0x30, 0xb7, 0x99, 0xbd, 0x7c, 0xda, 0x03, 0x3d,
  0xd7, 0x0a, 0x40, 0xbd, 0x73, 0x67, 0xe8, 0xbb, 0xad, 0x68, 0x9d, 0xbd,
  0x84, 0x03, 0xa6, 0x3d, 0x3d, 0x2c, 0x7f, 0x3e, 0xb9, 0xed, 0x35, 0xbe,
  0x5f, 0x75, 0xf7, 0xbd, 0xb1, 0x46, 0x92, 0x3e, 0xe0, 0x72, 0x77, 0xbc,
  0x6a, 0x6f, 0x46, 0xbe, 0x8b, 0x52, 0x11, 0xbe, 0x69, 0xe5, 0x9a, 0xbc,
  0x6e, 0xca, 0x6e, 0x3d, 0xad, 0x28, 0x24, 0xbe, 0x71, 0xa1, 0x42, 0xbe,
  0xa8, 0xa1, 0xc9, 0xbd, 0x0c, 0x0a, 0xbd, 0xbe, 0x07, 0xcd, 0x15, 0x3e,
  0x63, 0x81, 0x00, 0xbd, 0x69, 0xef, 0x8c, 0xbd, 0xe1, 0xb4, 0x0f, 0x3e,
  0x3e, 0xc2, 0x2d, 0xbb, 0x87, 0x34, 0x55, 0xbe, 0x50, 0x83, 0x4c, 0x3f,
  0x73, 0xb9, 0x4b, 0xbd, 0xf7, 0xba, 0xf9, 0xbb, 0xfd, 0x7b, 0x6d, 0x3d,
  0x3e, 0xd5, 0x85, 0xbe, 0x6f, 0x33, 0x87, 0xbd, 0x2a, 0xe8, 0x0e, 0xbe,
  0xbd, 0xc1, 0x19, 0xbd, 0x7d, 0xbf, 0x7f, 0xbe, 0xad, 0x40, 0x51, 0xbe,
  0x9d, 0xf2, 0x2c, 0x3e, 0xd7, 0x7f, 0x94, 0xbc, 0xa3, 0x2f, 0x54, 0xbe,
  0x02, 0x91, 0x70, 0x3e, 0xe6, 0x75, 0x93, 0xbe, 0x83, 0x0f, 0x0e, 0xbe,
  0x1a, 0x39, 0xfd, 0x3e, 0xc8, 0x90, 0xba, 0xbe, 0x61, 0x94, 0x00, 0xbe,
  0x7c, 0x44, 0xaa, 0xbe, 0x6e, 0x0e, 0x99, 0xbe, 0x3b, 0x9b, 0xd8, 0xbe,
  0xaf, 0x97, 0x9d, 0x3e, 0x68, 0x1c, 0xb3, 0xbe, 0x71, 0xc9, 0x8a, 0xbe,
  0x9c, 0x03, 0x08, 0xbe, 0xcc, 0x6e, 0x11, 0x3e, 0xaf, 0xf3, 0x25, 0xbe,
  0xf6, 0x0f, 0x2d, 0xbe, 0x01, 0x69, 0xa5, 0xbe, 0x2c, 0x01, 0x06, 0xbd,
  0x59, 0x08, 0xa6, 0x3b, 0x17, 0xff, 0xb3, 0x3e, 0xb4, 0x00, 0xd0, 0x3d,
  0x89, 0x03, 0xc6, 0xbe, 0xc5, 0x6c, 0xe6, 0x3c, 0x7f, 0x56, 0x83, 0x3c,
  0xb3, 0xb6, 0x53, 0xbd, 0x94, 0xc3, 0x1b, 0x3e, 0xc3, 0x56, 0x9d, 0x3e,
  0x29, 0x5f, 0xaf, 0x3e, 0x54, 0x8b, 0xcd, 0x3d, 0xb1, 0x75, 0x2e, 0x3f,
  0xa4, 0x40, 0xeb, 0xbe, 0x39, 0xb4, 0xf3, 0x3d, 0xec, 0x6e, 0xb7, 0xbe,
  0x02, 0x4c, 0x8f, 0x3e, 0xab, 0xd1, 0x52, 0x3d, 0x06, 0x05, 0x47, 0x3e,
  0x99, 0x0e, 0xf8, 0x3d, 0x4a, 0xa0, 0xe0, 0xbe, 0x3a, 0x90, 0x22, 0x3e,
  0x34, 0xfb, 0xc1, 0xbd, 0x05, 0x29, 0x36, 0x3e, 0x84, 0x0d, 0x9c, 0xbc,
  0x31, 0xca, 0x8c, 0xbd, 0x16, 0x55, 0x30, 0x3f, 0xac, 0xbf, 0x13, 0x3e,
  0xd3, 0xbe, 0xd8, 0x3e, 0x2a, 0xe8, 0xac, 0xbe, 0x8a, 0xf9, 0x5c, 0x3d,
  0xdf, 0xa9, 0xb5, 0xbe, 0x43, 0x1f, 0xa3, 0x3e, 0x77, 0x5b, 0x7a, 0x3d,
  0xb3, 0xbe, 0x53, 0x3e, 0x8c, 0x5d, 0x1e, 0xbd, 0x55, 0xd7, 0xb1, 0xbe,
  0xa4, 0x9d, 0x69, 0x3e, 0x64, 0x2b, 0x2c, 0xbe, 0x00, 0x36, 0x11, 0x3f,
  0x34, 0x97, 0x8b, 0x3c, 0x3d, 0x7d, 0x83, 0xbd, 0x3c, 0x97, 0x35, 0x3f,
  0x97, 0x95, 0x91, 0x3c, 0xd6, 0x0d, 0x73, 0x3e, 0xb7, 0x20, 0x00, 0xbe,
  0x6a, 0x3e, 0x05, 0x3e, 0x2d, 0xa9, 0x95, 0xbe, 0xf8, 0x87, 0x8e, 0x3e,
  0xfb, 0x2c, 0x27, 0x3d, 0xc4, 0x9f, 0x45, 0x3e, 0x31, 0x86, 0xc3, 0xbd,
  0xd9, 0xd7, 0xa5, 0xbe, 0xe5, 0x39, 0x04, 0xbe, 0xa5, 0xb1, 0x9c, 0xbc,
  0xa4, 0x8c, 0x0e, 0x3e, 0xb8, 0x22, 0x1d, 0xbd, 0xbd, 0xe6, 0x92, 0xbd,
  0xaf, 0x14, 0x5b, 0xbc, 0x6b, 0xb7, 0xec, 0xbb, 0x1b, 0x05, 0x92, 0x3e,
  0x9d, 0x60, 0x30, 0xbe, 0xde, 0x06, 0x84, 0x3c, 0xf8, 0x71, 0x91, 0xbe,
  0x91, 0x88, 0x91, 0x3e, 0xa9, 0x19, 0x91, 0x3d, 0xd2, 0x5a, 0xdb, 0xbd,
  0x0f, 0x68, 0x9a, 0x3e, 0xfa, 0x17, 0x0e, 0xbf, 0x4d, 0xea, 0xe1, 0xbd,
  0xa4, 0xa5, 0xab, 0xbe, 0xec, 0xd0, 0xfe, 0xbd, 0xf9, 0x40, 0xb7, 0xbc,
  0x75, 0xf1, 0xb8, 0xbe, 0x7d, 0x32, 0x9f, 0xbd, 0xfe, 0xe4, 0x1a, 0x3d,
  0x0e, 0xb7, 0xed, 0x3e, 0x3d, 0x05, 0x8e, 0xbe, 0x91, 0xf2, 0xf6, 0x3c,
  0xcb, 0x2b, 0xf1, 0xbe, 0x6c, 0xc4, 0x85, 0x3e, 0xa0, 0x96, 0x0d, 0x3d,
  0x18, 0x2f, 0x45, 0xbe, 0x62, 0xa6, 0x3c, 0xbd, 0x54, 0x31, 0x63, 0xbe,
  0xd9, 0x35, 0xc2, 0xbe, 0xe4, 0x8c, 0x75, 0xbd, 0x1f, 0x08, 0x31, 0xbd,
  0xcf, 0xf4, 0x84, 0x3e, 0x4a, 0x95, 0x38, 0x3d, 0x7a, 0xf9, 0x55, 0xbd,
  0x0d, 0x1e, 0xb1, 0x3d, 0x8a, 0xa2, 0x04, 0x3f, 0xcb, 0xa4, 0x32, 0xbd,
  0x09, 0x54, 0x9d, 0x3d, 0x90, 0x49, 0x86, 0xba, 0x41, 0xc5, 0x81, 0xbd,
  0x59, 0x20, 0x78, 0x3d, 0xc8, 0x8b, 0x9c, 0x3e, 0xf6, 0xe3, 0xc2, 0xbd,
  0x46, 0xb3, 0x5f, 0xbc, 0x98, 0x60, 0x8c, 0x3e, 0x06, 0xea, 0x45, 0x3e,
  0x40, 0x32, 0xce, 0xbe, 0xea, 0x05, 0xaf, 0xbe, 0x6e, 0x1c, 0xc1, 0x3c,
  0x16, 0x1e, 0x70, 0xbd, 0x9c, 0x64, 0x1e, 0x3e, 0xcf, 0x8a, 0x81, 0xbd,
  0x88, 0x0d, 0x6f, 0x3e, 0x30, 0x67, 0x82, 0xbd, 0x9a, 0xf3, 0xd5, 0xbd,
  0x35, 0xaa, 0xbf, 0xbe, 0x9b, 0xc5, 0x94, 0x3c, 0x54, 0x79, 0x5d, 0x3c,
  0xc3, 0x2d, 0x5f, 0xbe, 0xc8, 0x8e, 0xb1, 0xbc, 0x48, 0xaa, 0xca, 0xbd,
  0xba, 0x5e, 0xc6, 0xbc, 0x9d, 0x8b, 0x3f, 0xbe, 0xf2, 0xd3, 0xa8, 0xbe,
  0x01, 0x31, 0x50, 0x3a, 0xe5, 0x62, 0x78, 0x3e, 0xfc, 0x32, 0x9d, 0xbe,
  0xc0, 0x6a, 0x5b, 0xbe, 0x06, 0xa5, 0x9d, 0x3e, 0x96, 0x58, 0x59, 0x3c,
  0x4a, 0x93, 0x23, 0x3e, 0x28, 0x6a, 0xf6, 0xbd, 0x70, 0xd7, 0x91, 0xbc,
  0x22, 0xc6, 0x53, 0x3f, 0xe3, 0xdb, 0x2b, 0xbe, 0xf7, 0x68, 0x9d, 0x3e,
  0xf7, 0x69, 0x23, 0xbe, 0xeb, 0xd0, 0xf8, 0x3d, 0xe1, 0xa0, 0x44, 0x3e,
  0x16, 0xe1, 0xd8, 0xbd, 0x9d, 0xed, 0xa0, 0x3e, 0x77, 0x4b, 0x9a, 0xbd,
  0x75, 0x79, 0x5c, 0xbe, 0x82, 0x06, 0x6c, 0xbe, 0xca, 0x71, 0x83, 0x3e,
  0x95, 0xc5, 0xbb, 0xbd, 0x57, 0xe8, 0xd7, 0x3e, 0x78, 0xaf, 0x9e, 0xbe,
  0xb7, 0x40, 0x18, 0xbe, 0xbf, 0x47, 0x5a, 0x3e, 0x70, 0xf4, 0x1e, 0xbc,
  0x1e, 0xb4, 0x93, 0x3e, 0xa4, 0x92, 0x01, 0xbe, 0x25, 0xad, 0xe9, 0x3e,
  0xc2, 0xc7, 0x93, 0x3d, 0xcc, 0x5e, 0x18, 0xbd, 0x4e, 0x40, 0xa4, 0x3e,
  0xf4, 0xc3, 0x02, 0x3e, 0x27, 0x4c, 0x0d, 0x3d, 0x13, 0xde, 0x25, 0xbb,
  0xb5, 0x17, 0x1e, 0xbb, 0x59, 0xc9, 0x80, 0x3d, 0x87, 0x9a, 0xfe, 0x3e,
  0x1d, 0x72, 0xcb, 0xbe, 0x6d, 0x9e, 0x8c, 0xbc, 0x23, 0x6c, 0x0a, 0x3f,
  0x27, 0x04, 0x0d, 0x3c, 0xc5, 0xa6, 0x05, 0xbe, 0x35, 0x8f, 0xaa, 0x3d,
  0xdb, 0x8b, 0x94, 0x3e, 0xdf, 0x44, 0x96, 0xbe, 0x59, 0x0a, 0x5d, 0x3d,
  0x8a, 0x20, 0xe6, 0x3e, 0x2f, 0x6d, 0xe1, 0xbe, 0xd3, 0xdf, 0xb8, 0x3d,
  0x8c, 0xe9, 0x8a, 0xbe, 0x10, 0x7f, 0x8c, 0x3c, 0x89, 0x9e, 0x49, 0x3e,
  0xb7, 0xb8, 0xaf, 0x3e, 0xd8, 0x23, 0x30, 0xbf, 0xa6, 0x1f, 0x9c, 0xbd,
  0xd4, 0xb3, 0xc4, 0x3e, 0x31, 0x96, 0x09, 0xbf, 0x27, 0xc5, 0x3e, 0x3d,
  0xcb, 0x91, 0x40, 0x3e, 0x85, 0x29, 0x49, 0x3e, 0x3c, 0x27, 0xc7, 0xbe,
  0x54, 0x66, 0x16, 0xbd, 0xef, 0x11, 0xe0, 0x3d, 0x4e, 0xed, 0xbf, 0xbe,
  0x94, 0x6f, 0x07, 0x3e, 0x68, 0xf3, 0x12, 0xbf, 0xc8, 0x7f, 0x55, 0x3d,
  0x08, 0x22, 0x39, 0xbd, 0xec, 0x08, 0xbd, 0x3d, 0xd4, 0x37, 0x0a, 0xbf,
  0x4b, 0x8f, 0x70, 0xbd, 0x8f, 0xae, 0x28, 0x3f, 0xe7, 0x1a, 0xeb, 0xbd,
  0xb2, 0x8d, 0xe0, 0x3d, 0x03, 0x51, 0x10, 0x3e, 0x35, 0xa7, 0x05, 0xbd,
  0x85, 0x51, 0xd7, 0xbe, 0xbd, 0xe1, 0xfd, 0xbd, 0xdd, 0x8b, 0x09, 0xbe,
  0x1b, 0xba, 0xbd, 0xbd, 0x47, 0x40, 0x98, 0xbd, 0xdc, 0xda, 0x4b, 0xbe,
  0x13, 0x30, 0x0d, 0x3e, 0xf9, 0xe1, 0x14, 0xbe, 0xf9, 0x89, 0x75, 0xbd,
  0x88, 0x85, 0xb1, 0xbd, 0xd2, 0x62, 0x1e, 0xbd, 0x80, 0xc9, 0x1e, 0x3e,
  0x85, 0x7d, 0xb9, 0xbd, 0xa5, 0x00, 0xfb, 0xbd, 0x86, 0x44, 0x9e, 0xbe,
  0xe1, 0x4a, 0xc2, 0xbe, 0xb0, 0x77, 0x57, 0xbd, 0x7d, 0xc8, 0x5d, 0x3d,
  0x31, 0xf7, 0x41, 0xbe, 0x62, 0x20, 0x52, 0xbe, 0x4a, 0x16, 0x43, 0xbe,
  0x51, 0x32, 0x0e, 0x3e, 0x92, 0xe4, 0x9e, 0xbe, 0xed, 0xbe, 0xff, 0xbd,
  0x6d, 0xe1, 0x37, 0xbe, 0x5b, 0x7b, 0x18, 0x3e, 0x0f, 0xd3, 0x91, 0x3d,
  0xb1, 0xc7, 0x51, 0x3f, 0x32, 0x07, 0x9a, 0x3e, 0xdf, 0x77, 0xea, 0x3d,
  0x93, 0x22, 0xb9, 0xbd, 0xc2, 0x18, 0x93, 0x3d, 0xf3, 0x5e, 0xab, 0x3e,
  0x75, 0x0e, 0xb3, 0x3e, 0x67, 0xa3, 0x4a, 0xbe, 0xef, 0x4a, 0x92, 0x3e,
  0x6e, 0xc7, 0x36, 0x3d, 0x09, 0xca, 0x2c, 0x3e, 0x33, 0x74, 0x36, 0xbe,
  0x1c, 0x12, 0x5c, 0x3e, 0x42, 0x16, 0x2a, 0xbe, 0x25, 0x5e, 0x36, 0x3e,
  0x88, 0x5c, 0x10, 0xbe, 0x61, 0xea, 0xef, 0xbd, 0xe8, 0xdd, 0xfa, 0x3d,
  0x8a, 0xcc, 0x81, 0xbc, 0x70, 0x9b, 0x8c, 0x3e, 0xed, 0x85, 0x2a, 0xbe,
  0xa9, 0xb2, 0xb6, 0x3e, 0xd4, 0x73, 0x8a, 0x3e, 0x92, 0x56, 0xa7, 0xbd,
  0x35, 0x08, 0x97, 0x3e, 0x29, 0x0b, 0x82, 0x3e, 0x69, 0x8c, 0x2b, 0x3e,
  0xcd, 0xfd, 0xbd, 0xbc, 0x9a, 0xb2, 0xaf, 0x3e, 0xc3, 0xe6, 0xf3, 0x3d,
  0x4f, 0xfd, 0x67, 0x3e, 0x6f, 0xe6, 0x97, 0xbc, 0xfe, 0x16, 0xad, 0xbd,
  0x0c, 0xe9, 0x84, 0x3e, 0x68, 0xea, 0x0f, 0xbe, 0xdf, 0x33, 0xdf, 0x3d,
  0x91, 0xb1, 0xba, 0xbc, 0xcf, 0xb7, 0xa8, 0x3d, 0x4e, 0xed, 0x8e, 0x3e,
  0xb0, 0x24, 0x92, 0xbe, 0xd9, 0x5e, 0xb4, 0x3e, 0xbc, 0x12, 0x03, 0xbc,
  0x59, 0x29, 0x04, 0x3e, 0xe0, 0xba, 0x89, 0xbe, 0xcc, 0xf7, 0x34, 0x3e,
  0x5f, 0x91, 0x55, 0x3d, 0xba, 0x72, 0x0f, 0x3f, 0x37, 0x66, 0xe2, 0xbd,
  0xa7, 0x9b, 0x86, 0xbe, 0xbf, 0xf0, 0xca, 0x3e, 0x00, 0x28, 0x54, 0xbe,
  0x8f, 0x8e, 0x51, 0x3e, 0x83, 0x60, 0xe7, 0xbd, 0xab, 0x0c, 0x80, 0x3c,
  0xda, 0x9e, 0x33, 0x3e, 0xfc, 0xc8, 0xae, 0xbe, 0xdb, 0x22, 0x10, 0x3d,
  0x51, 0x46, 0xbd, 0x3d, 0xfb, 0x56, 0x42, 0x3e, 0x7d, 0xf9, 0x1f, 0xbe,
  0x8f, 0xaf, 0x01, 0x3e, 0xd7, 0x9e, 0xc8, 0xbd, 0x91, 0x28, 0x9c, 0x3e,
  0x92, 0xd5, 0xcb, 0xbd, 0x78, 0x6e, 0x48, 0x3d, 0xdc, 0x05, 0xa7, 0x3c,
  0x27, 0x4c, 0xd5, 0xbd, 0x40, 0x6e, 0x4a, 0x3e, 0xb5, 0x35, 0x87, 0xbd,
  0xfa, 0x7c, 0x84, 0x3d, 0x98, 0xf5, 0x3d, 0x3d, 0x38, 0x60, 0x2a, 0xbe,
  0xaa, 0x17, 0x68, 0x3d, 0x7b, 0x2d, 0x01, 0x3e, 0xb5, 0xa1, 0x56, 0x3e,
  0x8f, 0x2b, 0x19, 0xbe, 0xd9, 0x3e, 0x03, 0x3e, 0xc6, 0x78, 0x32, 0xbe,
  0x8c, 0xfc, 0x7b, 0x3e, 0x17, 0x01, 0xce, 0xbd, 0x77, 0x44, 0xc1, 0xbd,
  0x14, 0x7d, 0xce, 0xbd, 0x5f, 0x6f, 0x38, 0xbe, 0xc6, 0x5d, 0x82, 0xbd,
  0x36, 0x44, 0xfa, 0xbd, 0xd7, 0xb5, 0x5b, 0xbe, 0x5c, 0x8f, 0xa8, 0x3e,
  0x5e, 0xc0, 0xe0, 0x3d, 0x47, 0x3c, 0x39, 0x3e, 0x3d, 0x57, 0x10, 0x3e,
  0xc1, 0x46, 0xc0, 0x3e, 0x06, 0x95, 0x58, 0x3c, 0x06, 0x6d, 0x0c, 0x3e,
  0xb2, 0x5f, 0x76, 0xbe, 0x8a, 0x55, 0x12, 0x3d, 0xbd, 0x32, 0x06, 0xbe,
  0x58, 0x50, 0xb5, 0x3e, 0x03, 0xfc, 0xc4, 0xbe, 0xe5, 0xab, 0x02, 0xbe,
  0x88, 0xdd, 0x8f, 0xbe, 0x13, 0x2c, 0xc0, 0xbe, 0xc0, 0xf0, 0x3f, 0xbe,
  0x50, 0xd4, 0x95, 0x3e, 0xe2, 0x02, 0xcb, 0xbe, 0x10, 0x46, 0x77, 0xbe,
  0x45, 0xd9, 0x0f, 0xbe, 0x23, 0x4d, 0x4c, 0x3e, 0x50, 0x5b, 0xb2, 0xbe,
  0x76, 0x93, 0x99, 0xbe, 0xf6, 0xc8, 0x5a, 0xbe, 0x76, 0x19, 0x61, 0x3c,
  0xe0, 0x9c, 0x47, 0x3d, 0xba, 0x86, 0xcb, 0x3e, 0x70, 0x43, 0xce, 0x3d,
  0xcf, 0x63, 0x8a, 0xbe, 0x3f, 0xe6, 0x6c, 0xbd, 0x54, 0x8a, 0x99, 0x3d,
  0x26, 0x63, 0x8f, 0x3e, 0x7d, 0x79, 0x8b, 0xbd, 0x16, 0x27, 0x25, 0x3e,
  0x7a, 0xd4, 0x0c, 0x3e, 0x69, 0xdf, 0x8b, 0x3d, 0x31, 0x98, 0x8b, 0x3e,
  0x38, 0xb2, 0xae, 0xbe, 0x04, 0xb7, 0x4c, 0x3e, 0xf2, 0x2d, 0x1e, 0xbe,
  0xb3, 0x1d, 0xcf, 0x3e, 0xb8, 0x53, 0x81, 0x3d, 0xf0, 0xde, 0x33, 0x3d,
  0xf4, 0xf7, 0x31, 0x3e, 0xfb, 0x8b, 0x7a, 0xbe, 0x7a, 0x04, 0x0f, 0x3e,
  0xc5, 0x38, 0xdd, 0xbd, 0x95, 0x6c, 0x5a, 0xbd, 0x1b, 0xd1, 0x19, 0x3e,
  0x12, 0x35, 0x0a, 0xbe, 0xcd, 0xdb, 0x9a, 0x3e, 0xa6, 0xb6, 0xf2, 0x3d,
  0xf8, 0x6a, 0x01, 0x3e, 0x9b, 0xee, 0x84, 0xbe, 0xa0, 0x05, 0xea, 0x3d,
  0xc8, 0xec, 0x9c, 0xbe, 0xf8, 0x72, 0x09, 0x3f, 0x24, 0x9e, 0x7d, 0x3d,
  0x9f, 0x94, 0x9e, 0x3c, 0xc1, 0x2d, 0x74, 0x3e, 0xd5, 0x2e, 0x91, 0xbe,
  0xd6, 0x88, 0x4b, 0x3e, 0x86, 0xdc, 0x3d, 0xbd, 0x85, 0x41, 0x68, 0x3e,
  0x94, 0x50, 0x83, 0x3e, 0x41, 0xc0, 0x29, 0xbe, 0x83, 0x4e, 0x63, 0x3e,
  0xe6, 0x43, 0x5d, 0xbd, 0xee, 0x3c, 0x9e, 0x3e, 0x05, 0x03, 0x3a, 0xbe,
  0x05, 0xc2, 0xc5, 0xbb, 0xb2, 0x2e, 0xf9, 0xbd, 0x1f, 0x66, 0xef, 0x3e,
  0x22, 0x03, 0xaf, 0x3d, 0xd8, 0x7c, 0x22, 0x3e, 0x90, 0xeb, 0x2c, 0x3e,
  0x83, 0xa1, 0xa3, 0xbe, 0x12, 0x80, 0x4d, 0x3c, 0xf9, 0x72, 0x90, 0xbd,
  0x7e, 0x98, 0xf9, 0xbd, 0x68, 0xe6, 0x65, 0xbd, 0x6c, 0x0c, 0xba, 0xbe,
  0xa9, 0x16, 0x5c, 0x3c, 0x39, 0xab, 0x01, 0xbd, 0x05, 0xc2, 0x63, 0x3e,
  0xe4, 0x30, 0x76, 0xbe, 0x1d, 0x4d, 0x9f, 0xbc, 0x71, 0xce, 0x48, 0xbe,
  0xc0, 0x56, 0xef, 0x3e, 0x01, 0xc8, 0x7d, 0x3c, 0x31, 0x42, 0x31, 0xbe,
  0xf6, 0xf5, 0x21, 0x3d, 0xaf, 0x6b, 0xc6, 0xbe, 0xa9, 0x41, 0xe6, 0x3d,
  0x74, 0xeb, 0x8f, 0xbe, 0x7a, 0x86, 0xbf, 0xbd, 0x42, 0xab, 0x43, 0x3d,
  0x6b, 0xda, 0xeb, 0xbe, 0x46, 0x77, 0x46, 0x3e, 0x5d, 0x5e, 0x8f, 0xbd,
  0x4d, 0x75, 0xea, 0x3e, 0x82, 0xb4, 0xa7, 0xbe, 0x4c, 0x9e, 0x85, 0x3c,
  0x5e, 0x9f, 0x99, 0xbe, 0x43, 0x25, 0xd0, 0x3e, 0xff, 0xfb, 0xd8, 0x3c,
  0x91, 0xc7, 0xe5, 0xbd, 0xb8, 0xd8, 0x02, 0xbd, 0xd9, 0xf6, 0x9e, 0xbe,
  0x57, 0x1d, 0xb8, 0xbe, 0x01, 0xfe, 0xa5, 0xbc, 0x0c, 0x3c, 0x33, 0xbe,
  0xde, 0xe6, 0x0f, 0x3e, 0x02, 0xe5, 0x91, 0x3d, 0x0d, 0xb9, 0x3e, 0x3c,
  0x0e, 0xe5, 0x1a, 0x3e, 0xc6, 0xcf, 0xdc, 0x3e, 0x68, 0xb7, 0x0e, 0xbe,
  0x0a, 0x67, 0xc0, 0xbd, 0x90, 0x77, 0x5c, 0xbe, 0x1e, 0x0b, 0x9d, 0x3c,
  0xb6, 0x9c, 0x0d, 0x3d, 0xa5, 0xe4, 0x9e, 0x3e, 0x20, 0xfb, 0xcd, 0x3d,
  0xb7, 0xbc, 0xe9, 0x3c, 0xad, 0x60, 0xff, 0x3d, 0xf0, 0xcf, 0x14, 0xbe,
  0xca, 0xa3, 0xb5, 0x3e, 0xc1, 0x06, 0xd5, 0x3d, 0xb5, 0x6b, 0x82, 0xbc,
  0x7f, 0x59, 0x7b, 0xbe, 0xc1, 0x00, 0x09, 0xbf, 0x26, 0xe3, 0x64, 0x3d,
  0x6a, 0x02, 0x87, 0x3d, 0x51, 0xb4, 0xcd, 0xbd, 0x58, 0x58, 0x47, 0x3e,
  0xcc, 0xc8, 0xd3, 0xbb, 0xe2, 0x60, 0x35, 0xbe, 0xc4, 0x21, 0xb4, 0xbe,
  0xc6, 0x0c, 0xca, 0x3d, 0xfc, 0x19, 0x5d, 0xbe, 0xa3, 0x4c, 0xd2, 0xbd,
  0x64, 0x5f, 0xb6, 0xba, 0x9b, 0x5c, 0xd6, 0x3d, 0x23, 0x76, 0x92, 0x3e,
  0x00, 0xb8, 0x0c, 0x3e, 0x87, 0x14, 0x88, 0xbe, 0x67, 0xdf, 0x65, 0x3d,
  0x60, 0xbe, 0x01, 0x3e, 0x82, 0x36, 0x8e, 0xbd, 0x64, 0x8e, 0x12, 0xbe,
  0xee, 0x66, 0x84, 0xbe, 0x8f, 0x43, 0x0c, 0xbe, 0x63, 0x45, 0xf3, 0xbd,
  0x8a, 0x3a, 0x8a, 0xbc, 0xbe, 0xef, 0x59, 0xbe, 0x40, 0x5c, 0x51, 0xbe,
  0x6e, 0x6d, 0xa7, 0xbd, 0x5b, 0x1f, 0xd6, 0xbd, 0x5e, 0x1e, 0xd0, 0x3d,
  0x58, 0x19, 0x38, 0xbe, 0x0c, 0x22, 0x4e, 0xbd, 0x52, 0x75, 0x22, 0xbe,
  0x2d, 0x6e, 0x9d, 0xbd, 0xc9, 0x15, 0xf0, 0xbc, 0x1d, 0x2d, 0xcc, 0x3b,
  0x58, 0xde, 0x83, 0xbe, 0xf2, 0xd4, 0x5f, 0xbe, 0x06, 0x50, 0x81, 0xbd,
  0xea, 0xad, 0x29, 0xbe, 0xf4, 0x94, 0x62, 0xbe, 0x1e, 0x06, 0x2f, 0xbe,
  0x32, 0xeb, 0xef, 0xbd, 0xcc, 0x11, 0xff, 0xbc, 0xa5, 0xf6, 0x8b, 0xbd,
  0x41, 0x09, 0x83, 0xbe, 0x32, 0xe4, 0x79, 0xbc, 0x2c, 0x79, 0x5e, 0xbe,
  0xef, 0xb8, 0x79, 0xbe, 0xf4, 0x16, 0x4a, 0xbe, 0x3c, 0x03, 0x24, 0xbe,
  0xc0, 0x29, 0x6a, 0xbe, 0x05, 0x83, 0xd5, 0xbe, 0x45, 0x06, 0x98, 0xbe,
  0xa9, 0x22, 0x18, 0xbe, 0x46, 0x34, 0x19, 0xbe, 0x33, 0x69, 0x51, 0xbe,
  0x97, 0x6b, 0x89, 0xbb, 0x49, 0xda, 0x98, 0x3d, 0xe2, 0x47, 0xac, 0xbd,
  0xb8, 0xd9, 0x5e, 0xbd, 0x9b, 0x99, 0x2a, 0x3e, 0xb5, 0xcd, 0xdb, 0x3d,
  0xea, 0xa6, 0xf2, 0x3d, 0x4d, 0x3e, 0x34, 0x3e, 0xa4, 0xe1, 0x40, 0x3e,
  0xb1, 0x7c, 0x46, 0xbe, 0xc0, 0x11, 0x01, 0x3e, 0x20, 0xe4, 0x36, 0xbe,
  0x34, 0xf5, 0x84, 0xbe, 0xff, 0xfe, 0x78, 0xbd, 0x14, 0xd9, 0x24, 0xbd,
  0x9d, 0xf1, 0x97, 0xbd, 0xa7, 0xeb, 0x8f, 0x3e, 0xb3, 0x01, 0x89, 0xbd,
  0x5c, 0x6f, 0x5e, 0xbe, 0x03, 0xde, 0xac, 0xbd, 0xbf, 0xd4, 0x01, 0x3e,
  0xbe, 0x28, 0x5a, 0xbe, 0x6e, 0x2b, 0x93, 0xbd, 0x6f, 0x9e, 0x16, 0x3e,
  0xa5, 0x6c, 0x31, 0xbe, 0x6d, 0x4e, 0x55, 0xbc, 0x0f, 0xa7, 0x08, 0x3e,
  0x86, 0x51, 0x4d, 0x3e, 0x84, 0xb8, 0x9d, 0x3c, 0xa5, 0x95, 0x22, 0x3c,
  0xb1, 0x3f, 0x25, 0xbe, 0x9d, 0x83, 0x9d, 0xbe, 0x01, 0x61, 0xff, 0xbd,
  0x9a, 0x9a, 0x7e, 0xbe, 0x40, 0xe8, 0x8e, 0x3e, 0xd6, 0xdc, 0x04, 0xbd,
  0x5f, 0x77, 0x35, 0x3d, 0xee, 0xd8, 0x87, 0x3e, 0x6e, 0xbf, 0x68, 0x3e,
  0xed, 0xc9, 0x21, 0xbd, 0x2c, 0xf4, 0x10, 0xbe, 0x22, 0x29, 0xf6, 0xbd,
  0x42, 0xc7, 0x47, 0xbe, 0x88, 0x20, 0x0f, 0x3e, 0xaa, 0xc2, 0xa8, 0xbe,
  0x68, 0x73, 0x99, 0xbd, 0x21, 0x27, 0xfe, 0xbd, 0x24, 0x68, 0x2f, 0xbe,
  0x66, 0xfd, 0xff, 0xff, 0x10, 0x00, 0x00, 0x00, 0x07, 0x00, 0x00, 0x00,
  0x14, 0x00, 0x00, 0x00, 0x2c, 0x00, 0x00, 0x00, 0x02, 0x00, 0x00, 0x00,
  0x10, 0x00, 0x00, 0x00, 0x70, 0x00, 0x00, 0x00, 0x17, 0x00, 0x00, 0x00,
  0x73, 0x65, 0x71, 0x75, 0x65, 0x6e, 0x74, 0x69, 0x61, 0x6c, 0x2f, 0x64,
  0x65, 0x6e, 0x73, 0x65, 0x2f, 0x4d, 0x61, 0x74, 0x4d, 0x75, 0x6c, 0x00,
  0xd0, 0xfc, 0xff, 0xff, 0xda, 0xfd, 0xff, 0xff, 0x04, 0x00, 0x00, 0x00,
  0x08, 0x00, 0x00, 0x00, 0xff, 0xff, 0xff, 0xff, 0x70, 0x00, 0x00, 0x00,
  0x00, 0x00, 0x0e, 0x00, 0x18, 0x00, 0x08, 0x00, 0x07, 0x00, 0x0c, 0x00,
  0x10, 0x00, 0x14, 0x00, 0x0e, 0x00, 0x00, 0x00, 0x00, 0x00, 0x00, 0x02,
  0x10, 0x00, 0x00, 0x00, 0x06, 0x00, 0x00, 0x00, 0x10, 0x00, 0x00, 0x00,
  0x2c, 0x00, 0x00, 0x00, 0x01, 0x00, 0x00, 0x00, 0x02, 0x00, 0x00, 0x00,
  0x18, 0x00, 0x00, 0x00, 0x73, 0x65, 0x71, 0x75, 0x65, 0x6e, 0x74, 0x69,
  0x61, 0x6c, 0x2f, 0x66, 0x6c, 0x61, 0x74, 0x74, 0x65, 0x6e, 0x2f, 0x43,
  0x6f, 0x6e, 0x73, 0x74, 0x00, 0x00, 0x00, 0x00, 0x38, 0xfd, 0xff, 0xff,
  0x42, 0xfe, 0xff, 0xff, 0x04, 0x00, 0x00, 0x00, 0x0c, 0x00, 0x00, 0x00,
  0x47, 0x0c, 0xc0, 0x3f, 0xf9, 0xfc, 0x34, 0xc0, 0x0e, 0xa8, 0xb3, 0x3e,
  0x26, 0xfe, 0xff, 0xff, 0x10, 0x00, 0x00, 0x00, 0x05, 0x00, 0x00, 0x00,
  0x10, 0x00, 0x00, 0x00, 0x44, 0x00, 0x00, 0x00, 0x01, 0x00, 0x00, 0x00,
  0x03, 0x00, 0x00, 0x00, 0x32, 0x00, 0x00, 0x00, 0x73, 0x65, 0x71, 0x75,
  0x65, 0x6e, 0x74, 0x69, 0x61, 0x6c, 0x2f, 0x64, 0x65, 0x6e, 0x73, 0x65,
  0x5f, 0x31, 0x2f, 0x42, 0x69, 0x61, 0x73, 0x41, 0x64, 0x64, 0x2f, 0x52,
  0x65, 0x61, 0x64, 0x56, 0x61, 0x72, 0x69, 0x61, 0x62, 0x6c, 0x65, 0x4f,
  0x70, 0x2f, 0x72, 0x65, 0x73, 0x6f, 0x75, 0x72, 0x63, 0x65, 0x00, 0x00,
  0xa8, 0xfd, 0xff, 0xff, 0xb2, 0xfe, 0xff, 0xff, 0x04, 0x00, 0x00, 0x00,
  0x40, 0x00, 0x00, 0x00, 0x7b, 0x6f, 0x2d, 0xbe, 0x2c, 0xcc, 0xbf, 0x3f,
  0xed, 0xcd, 0x0e, 0xbf, 0xae, 0xbb, 0x15, 0xbe, 0x20, 0x65, 0xc0, 0xbf,
  0x3a, 0xaa, 0x49, 0xbf, 0x9c, 0x8c, 0x18, 0xbe, 0x48, 0x95, 0x2e, 0xbf,
  0x15, 0x19, 0x91, 0x3f, 0xd4, 0x6d, 0x27, 0xbe, 0x4e, 0x7f, 0xc5, 0xbd,
  0x49, 0x6e, 0x09, 0x40, 0x6f, 0xd8, 0x34, 0x3f, 0x30, 0xad, 0xa8, 0x3e,
  0xed, 0x00, 0x0d, 0x40, 0x65, 0xa9, 0xd7, 0xbe, 0xca, 0xfe, 0xff, 0xff,
  0x10, 0x00, 0x00, 0x00, 0x04, 0x00, 0x00, 0x00, 0x10, 0x00, 0x00, 0x00,
  0x44, 0x00, 0x00, 0x00, 0x01, 0x00, 0x00, 0x00, 0x10, 0x00, 0x00, 0x00,
  0x30, 0x00, 0x00, 0x00, 0x73, 0x65, 0x71, 0x75, 0x65, 0x6e, 0x74, 0x69,
  0x61, 0x6c, 0x2f, 0x64, 0x65, 0x6e, 0x73, 0x65, 0x2f, 0x42, 0x69, 0x61,
  0x73, 0x41, 0x64, 0x64, 0x2f, 0x52, 0x65, 0x61, 0x64, 0x56, 0x61, 0x72,
  0x69, 0x61, 0x62, 0x6c, 0x65, 0x4f, 0x70, 0x2f, 0x72, 0x65, 0x73, 0x6f,
  0x75, 0x72, 0x63, 0x65, 0x00, 0x00, 0x00, 0x00, 0x4c, 0xfe, 0xff, 0xff,
  0x56, 0xff, 0xff, 0xff, 0x04, 0x00, 0x00, 0x00, 0x40, 0x00, 0x00, 0x00,
  0xda, 0x6f, 0xc7, 0xbe, 0xaf, 0x36, 0xad, 0xbf, 0x07, 0x44, 0x91, 0xbf,
  0x90, 0x04, 0x2f, 0xc0, 0xc8, 0x05, 0xb2, 0xbf, 0xb6, 0xd7, 0xad, 0x3c,
  0xf7, 0xa5, 0x1f, 0xc0, 0x07, 0x0b, 0x3f, 0xbf, 0x04, 0xca, 0x8d, 0xbe,
  0xbc, 0x4e, 0xdc, 0x3b, 0x61, 0xb4, 0x0b, 0xc0, 0x94, 0x89, 0xea, 0x3d,
  0xed, 0xaf, 0x4d, 0x40, 0xdf, 0x3b, 0x9b, 0xbc, 0x04, 0x42, 0x5f, 0x3f,
  0xd2, 0xd8, 0x21, 0x40, 0x6e, 0xff, 0xff, 0xff, 0x10, 0x00, 0x00, 0x00,
  0x03, 0x00, 0x00, 0x00, 0x10, 0x00, 0x00, 0x00, 0x48, 0x00, 0x00, 0x00,
  0x01, 0x00, 0x00, 0x00, 0x10, 0x00, 0x00, 0x00, 0x33, 0x00, 0x00, 0x00,
  0x73, 0x65, 0x71, 0x75, 0x65, 0x6e, 0x74, 0x69, 0x61, 0x6c, 0x2f, 0x63,
  0x6f, 0x6e, 0x76, 0x32, 0x64, 0x5f, 0x31, 0x2f, 0x42, 0x69, 0x61, 0x73,
  0x41, 0x64, 0x64, 0x2f, 0x52, 0x65, 0x61, 0x64, 0x56, 0x61, 0x72, 0x69,
  0x61, 0x62, 0x6c, 0x65, 0x4f, 0x70, 0x2f, 0x72, 0x65, 0x73, 0x6f, 0x75,
  0x72, 0x63, 0x65, 0x00, 0x04, 0x00, 0x06, 0x00, 0x04, 0x00, 0x00, 0x00,
  0x00, 0x00, 0x06, 0x00, 0x08, 0x00, 0x04, 0x00, 0x06, 0x00, 0x00, 0x00,
  0x04, 0x00, 0x00, 0x00, 0x20, 0x00, 0x00, 0x00, 0x57, 0x1b, 0xe7, 0xbf,
  0x1f, 0x65, 0xe1, 0xbe, 0x04, 0x24, 0x23, 0xc0, 0x1a, 0x37, 0xe0, 0xbd,
  0x14, 0x9a, 0xbb, 0xbf, 0x87, 0x9d, 0x0b, 0xc0, 0x57, 0x68, 0x3a, 0xc0,
  0xbe, 0x67, 0xc1, 0xbc, 0x00, 0x00, 0x0e, 0x00, 0x14, 0x00, 0x04, 0x00,
  0x00, 0x00, 0x08, 0x00, 0x0c, 0x00, 0x10, 0x00, 0x0e, 0x00, 0x00, 0x00,
  0x10, 0x00, 0x00, 0x00, 0x02, 0x00, 0x00, 0x00, 0x10, 0x00, 0x00, 0x00,
  0x44, 0x00, 0x00, 0x00, 0x01, 0x00, 0x00, 0x00, 0x08, 0x00, 0x00, 0x00,
  0x31, 0x00, 0x00, 0x00, 0x73, 0x65, 0x71, 0x75, 0x65, 0x6e, 0x74, 0x69,
  0x61, 0x6c, 0x2f, 0x63, 0x6f, 0x6e, 0x76, 0x32, 0x64, 0x2f, 0x42, 0x69,
  0x61, 0x73, 0x41, 0x64, 0x64, 0x2f, 0x52, 0x65, 0x61, 0x64, 0x56, 0x61,
  0x72, 0x69, 0x61, 0x62, 0x6c, 0x65, 0x4f, 0x70, 0x2f, 0x72, 0x65, 0x73,
  0x6f, 0x75, 0x72, 0x63, 0x65, 0x00, 0x00, 0x00, 0x90, 0xff, 0xff, 0xff,
  0x14, 0x00, 0x18, 0x00, 0x04, 0x00, 0x00, 0x00, 0x08, 0x00, 0x0c, 0x00,
  0x10, 0x00, 0x00, 0x00, 0x00, 0x00, 0x14, 0x00, 0x14, 0x00, 0x00, 0x00,
  0x14, 0x00, 0x00, 0x00, 0x01, 0x00, 0x00, 0x00, 0x20, 0x00, 0x00, 0x00,
  0x44, 0x00, 0x00, 0x00, 0x2c, 0x00, 0x00, 0x00, 0x04, 0x00, 0x00, 0x00,
  0x01, 0x00, 0x00, 0x00, 0x40, 0x00, 0x00, 0x00, 0x03, 0x00, 0x00, 0x00,
  0x01, 0x00, 0x00, 0x00, 0x0c, 0x00, 0x00, 0x00, 0x63, 0x6f, 0x6e, 0x76,
  0x32, 0x64, 0x5f, 0x69, 0x6e, 0x70, 0x75, 0x74, 0x00, 0x00, 0x00, 0x00,
  0x04, 0x00, 0x00, 0x00, 0xff, 0xff, 0xff, 0xff, 0x40, 0x00, 0x00, 0x00,
  0x03, 0x00, 0x00, 0x00, 0x01, 0x00, 0x00, 0x00, 0xfc, 0xff, 0xff, 0xff,
  0x04, 0x00, 0x04, 0x00, 0x04, 0x00, 0x00, 0x00// Paste the data of the char array in `src/model.cc` here
};

unsigned int model_tflite_len = 13052;// Fill the int in `src/model.cc` here